#version: 0.2 - Trained by `huggingface/tokenizers`
Ġ ì
Ġ ë
ì Ŀ
ë ĭ
í ķ
ê °
. .
ìĿ ´
ëĭ ¤
ë Ĭ
ì Ĺ
ê ³
ì §
ëĬ Ķ
ì ŀ
ë §
í Ļ
ê³ ł
ì ł
íĻ Ķ
ĺ ģ
Ġ ê
ë ı
ì ķ
ã ħ
ĺģ íĻĶ
ì ļ
ì§ Ģ
íķ ĺ
ê° Ģ
ë Ĥ
ê ²
ì Ħ
Ġì ŀ
¬ ë
ê ¸
Ġì ķ
ëı Ħ
Ġ í
ë ĵ
ë ¦
ìĹ Ĳ
Ġì Ŀ
íķ ľ
Ġì ĺģíĻĶ
Ī ë
³ ´
ì ĭ
ĸ ´
ìĿ ĺ
ê¸ °
ãħ ĭ
Ġì Ĺ
ìĿ Ģ
ë ¡
ë į
ìĿ Ħ
Ŀ ¼
ëĤ ĺ
ê² Į
ĠìĿ ´
ìĦ ľ
Ġë §
ìļ Ķ
ì Ĭ
ì ĸ´
ë¡ ľ
Ġë Ĥ
ë§ Į
ë Ŀ¼
ë¦ ¬
Ġì ł
· ¸
ëĭ Ī
ëĵ ¤
ë ¥
ê ±
ìķ Ħ
ë ł
.. .
ë ©
¬ ´
ì ľ
Ġ ê°
ìĿ ¸
ãħĭ ãħĭ
¯ ¸
ëį °
Ġì §
ë Ħ
Ġìķ Ħ
Į Ģ
ë Ł
ì ĺ
ê µ
íķ ´
Ġë ³´
ë© ´
ì ĥ
ì ĺģíĻĶ
Ġì ĭ
Ġê ·¸
ê ¹
ë °
Ġë ª
ìł Ĳ
ìĭ ľ
Ī ĺ
Ġë ĭ
ë ³´
ìĿ Į
ìĬ ¤
£ ¼
ë ŀ
Ġë °
ìľ ¼
ëĦ ¤
Ġìŀ ¬ë
ë¥ ¼
ë§ Ĳ
Ġì ¢
! !
ë ¶
ì ¤
Ġì Ĥ
ê± °
ì Ĥ
ì Ļ
ë ĮĢ
ëĭĪ ëĭ¤
Īë ¬´
ìŀ Ĳ
ëĬĶ ëį°
ì Ľ
Ġë ³
ìł ķ
Ġë Ħ
ë§ Ī
ê¹ Į
ì ²
ìĹ Ĩ
ĠìĹ Ĩ
ìĹ Ī
ĠëĤ ĺ
Ġ íķĺ
ìļ °
Ġë ´
ì ¹
ìķ ¼
Ġì¢ ĭ
ì £¼
ì§ Ħ
Ġëĭ ¤
ì Īĺ
í ĸ
ë ³
ë ²
ìł ģ
µ ľ
ìŀ ¥
ìŀ Ī
ìŀ ĳ
ìł Ħ
ìĥ ģ
ë ª
.. ..
Ġì ĥ
Ġìł ķ
ì§ ľ
ì Ĩ
° Į
ìľ¼ ë¡ľ
Ġê ²
Ġìŀ Ī
ì§Ģ ë§Į
í ĺ
ê° Ħ
ĠìĹ °
íķĺ ê³ł
Ġì Ļ
¬ë ŀ
ê³ ¼
Ĳ ëı
ìĺ ¤
Ġì Ĭ
Ġë ĵ
ëĤ ´
Ġê ¸
ı ī
ãħ ł
ĠëĦ Īë¬´
ëŁ °
ë ħ
Ġì ĸ´
Ġì ĺ
Ġë§ Į
í ĥ
Ġìŀ¬ë ¯¸
Ġì§ Ģ
¹ Ħ
ë Ķ
ê ·¸
ì °
í ŀ
ë ĥ
ìĹĲ ìĦľ
ĠëĤ ´
ëĦ¤ ìļĶ
ê± ´
Ĳ ĺ
Ġ íķľ
ëĵ ľ
Ġìĭ ľ
í Ĩ
Ġë ¶
ìķ ĺ
íķ ł
Ġì Ħ
ķ Į
ì ¡
ìŀ ¬ë
ìĹ °
Ġì§ Ħ
Ġë´ ¤
ë £
Ġ ê°Ģ
ìļ ´
ĠìĬ ¤
ê³ µ
Ġì µľ
ë ´
ìĦ ±
ìĻ Ģ
Ġë ı
ë ¯¸
Ġì ļ
ìĹ ¬
ê° ģ
ìĬ µ
Ġì °
ê² ĥ
" "
íŀ Ī
Ġë į
ìł ľ
Ġ 1
í Ķ
ì¹ ĺ
ì ¶
ì ĸ
ìļ ©
Ġê¸ °
íķĺ ëĬĶ
Ġë ĮĢ
Ġì Ĩ
ë¶ Ģ
ëł ¤
ìĿ ¼
ĠìĹ° ê¸°
íĨ ł
ëŀ ĺ
Ġê° Ĳëı
íĸ Ī
í Į
Ġìŀ¬ë °Į
ıī ìłĲ
ë ¬
Ġì Īĺ
Ħ °
êµ ¬
Ġëª ¨
ì ¦
íķ ¨
ë£ ¨
ìĤ ¬
ìĸ´ ìļĶ
Ġìłķ ë§Ĳ
Ġìł Ħ
ĠìĤ ¬ëŀ
Ŀ ê°ģ
êµ Ń
Ġì ľ
ãħ İ
Ġì ¤
ìĭ ł
í Ħ°
Ġìŀ ĺ
ì ¢
ì¤ ĳ
Ġìķ Ĭ
Ġë ¬´
ë¶ Ħ
í Ĭ
ëŁ ¬
ì ħ
ãħĭãħĭ ãħĭãħĭ
ê² ł
ìĬµ ëĭĪëĭ¤
ìĿ´ ëĭ¤
í İ
Ġëį Ķ
ìĦ ¸
Ġìķ Ī
íķĺ ëĭ¤
Ġë Ĭ
Ġì ¡
ëł Ī
Ġê ±
Ġì £¼
ê° Ļ
° ìļ°
ë¥ ´
ĵ °
ë ķĮ
Ġì Ľ
ìĨ Į
ê° ľ
~ ~
Ġë Ń
ìŀ Ħ
íĨł ë¦¬
Ġëĵ ľ
Ġìĥ Ŀê°ģ
ìĥ Ŀ
Ġì§Ħ ì§ľ
ãħ ¡
ê° Ĳ
Ġë§ Ī
ëł ¥
ëĵ ł
ëį ĺ
ĠìĿ ¸
ìŀ ħ
ìĭ ¤
Ġê° Ļ
Ġìµľ ê³ł
í ģ
Ġì ²
Ġë§ Ĳ
Ġê µ
Ġëª »
ê ·
ëĤ ľ
ëĵ ¯
ëĿ¼ ë§Ī
ëĵ¤ ìĿ´
ë ¬´
Ġê° ľ
ĠìĹ ¬
ëħ Ħ
ìķ ħ
í Ĵ
ãħł ãħł
Ġìŀ Ĳ
ëĶ Ķ
Ġìł ľ
ĠëĬ Ĳ
Ġë ģ
ê¹Į ì§Ģ
ê¸ Ī
ë¦ Ħ
ĠìĻ ľ
ëĥ ¥
íİ ¸
Ġê ´
íĥ Ģ
íķĺ ê²Į
ë ¹Ħ
ë³ ¸
Ġë³ ¸
Ġì ¶
ëł ĩ
ĳ Ĳ
ìĺ Ģ
Ġì ĸ
Ġìķ Į
ĠëĤ ¨
í ı
Ġí ĺ
ìĿ´ ëĿ¼
íĬ ¸
Ġê² ĥ
ì¤ Ģ
Ġìĺ ¤
Ġí ıīìłĲ
ë³´ ëĭ¤
ìĹĪ ëĭ¤
Ġê ·
½ Ķ
Ġë³´ ê³ł
ìħ ĺ
Ġë³ ¼
ĠìĿ´ ëŁ°
ìľ ł
ê± ¸
; ;
ìł Ģ
ìłķ ë§Ĳ
ĠìĨ Į
ë§ ī
Ġë ©
ëį Ķ
ê ´
? ?
ì² ´
ë ¹
ì§Ħ ì§ľ
ì Ķ
Ġë ¹
Ġë ¹Ħ
ë ģ
Ľ Ħ
ìĭ ¬
Ġê°Ĳëı Ļ
Ġê ¹
Ġë§ İ
Ġí Ŀ
ĠìķĦ ëĭ
ĠìĬ¤ íĨłë¦¬
ìŀ¬ë ¯¸
ëłĪ ê¸°
íĴ Ī
íķ´ ìĦľ
ìķ Ī
ìĽ Ĳ
Ġë ¯¸
Ġë Ķ
Ġë Ī
Ġìŀ ĳ
ë² Ħ
ĵ° ëłĪê¸°
ì Ī
Ġìľ ł
Ġìŀ ¥
Ĳ ľ
¡ ľ
Ġë ²
ëĦ Īë¬´
ĠìĤ¬ëŀ Į
ëĥ Ĳ
Ġë¶ Ģ
ë©´ ìĦľ
Ġë§Į ëĵ¤
ĠìĿ ¼
Ġí ĸ
ë ¨
ëĭ ¨
ë Ĳĺ
ì¢ ĭ
Ġ ãħĭãħĭ
ì µľ
ê³ Ħ
Īë į
Ġì§Ģ ë£¨
ë¬ ¸
ë² Ī
Ġëĵľ ëĿ¼ë§Ī
Ġìķ Īë
ìłģ ìĿ¸
ĠìĤ ¬
Ġì¤ ĳ
ëª ħ
ìĦ ł
í ĭ
Ġ ê³µ
ëłĩ ê²Į
ëĭ¤ ëĬĶ
Ħ ë¡ľ
Ġëģ Ŀ
ì ĺģ
ãħ ľ
Ġë° °ìļ°
ì§ ģ
ìĸ µ
ì¶ ľ
ëĭ ¹
ĠëĤ´ ìļ©
ë¦¬ ê³ł
ë¦ °
ë§ Ŀ
ë¦ ¬ë
ìĽ Į
£ ½
ëŀ ĳ
Ġë Ĳĺ
Ġì¡ °
í ļ
ëı Ļ
ë ¯
Ġìļ °
Ġì¢ Ģ
Ġ íķ
Ġ íķ´
, ,
Ħ ìłĦ
Ġ1 0
ê¹ Ŀ
ì¡ °
^ ^
ĠëŃ Ĳ
Ġë Ĩ
ë³´ ê³ł
Ġìķ ł
í Ĥ
ãħİ ãħİ
ë´ ¤
ìŀ ¬
¡ ìħĺ
ì§Ģ ë§ī
Ġê°Ĳëı ħ
Ġ 2
ê° Ĳëı
ë¬ ¼
Ġìŀ¬ë¯¸ ìŀĪ
ë¥ ¸
Ġë´ Ĳ
Ġìĭ ¶
Ġê° Ĳ
ë Ĩ
ìľ¼ ë©´
ĠìĺģíĻĶ ë¥¼
ìŀ¬ë °Į
Ġì ¹
Ġí Į
ìĤ ¬ëŀ
ê¸ ´
ëª ¨
ë¦ ´
ìķ ł
ĠìĤ¬ëŀ ĳ
Ġìł Ģ
íĺ Ħ
ìĨ į
Ġí Ĺ
í Ŀ
íı ¬
Ġëª ħ
Ġ ê³ł
Ġë ĺ
Ġë° ĺ
Ġì¢ĭ ìķĦ
Īëį ĺ
ĠìĽ ĥ
ë ĳĲ
Ġê± °
Ġìŀ¬ë¯¸ ìĹĨ
Ġë ħ
ìĹ Ń
Ġì° ¸
ì¤ Ħ
ë° Ķ
Ġë³´ ëĬĶ
ì² ĺ
Ġê·¸ ëĥ¥
Ġë´¤ ëĬĶëį°
¬ ¼
íķĺ ì§Ģ
ĠìĹ Ń
ì¡ ±
í ħ
Ġë° Ķ
Ġì ĺģ
Ġìĥ ģ
ë ĸ
ìľ Ħ
ëĵ¤ ìĿĺ
ê »
Ġì ĵ°ëłĪê¸°
ë° ķ
ĠìĹĨ ëĬĶ
íĶ Ħ
ã Ħ
O O
Ġìŀĳ íĴĪ
ëĤ ¨
Ġëĭ¤ ìĭľ
¥ ¼
ëĭ ĺ
ëħ ¸
ìĿ¸ ê³µ
ì§Ģ ëĬĶ
Ġë§ ¤
ëŁ ½
ìŀħ ëĭĪëĭ¤
í Ĺ
ìļ ¸
ì² Ń
Ġê² °
ìĭ Ŀ
ĠìĺģíĻĶ ëĬĶ
ìĭ ¶
í ıīìłĲ
ĠëĬĲ ëĤ
Ġìĭ ¤
ë§ Īë
ë Ń
Ħ ¤
ë° ĺ
!! !
¬ë ¦
ìŀ ¼
Ġ íĻ
ê² ½
ĠìŀĪ ëĬĶ
ì§ Ī
Ġì¢ĭ ìĿĢ
© ëĭĪëĭ¤
Ġì¢ĭ ìķĺ
ê´ Ģ
ëĭ¤ ê³ł
ì ī
Ġìĭľ ê°Ħ
ê¸ ¸
ëĿ¼ ê³ł
ìĹ Ķ
ĠìĤ ´
êµ °
Ġìĭ ł
ìĹ° ê¸°
ìĦ ¤
ìķ¼ ê¸°
ĠìĺģíĻĶ ê°Ģ
ëĭ¤ ê°Ģ
ë° ľ
Ġíķĺ ëĤĺ
ìĬ ¨
º Ĳ
íļ Į
ìĹĨ ëĬĶ
Ġí ĥ
ê°Ļ ìĿĢ
Ġì ´
ìĸ´ ìĦľ
Ġë ķĮ
ì¶ Ķ
Ġë ¨
â Ļ
ëŀ Ģ
ë´ Ĳ
ĳ ľ
ĠìĹĨ ëĭ¤
Ġì² ĺ
ìĦ¸ ìļĶ
Ġìĺ Ī
ìĿ´ ëŁ°
Ġ íķł
ìłģ ìĿ´
ìµľ ê³ł
ì ģ
Ġëħ ¸
Ġíķĺ ëĬĶ
ìĿ¸ ëį°
ë Ĳľ
ĠëĤĺ ìĺ¤
ëĭ µ
!! !!
ĠëĦ ĺ
ĠìķĦ ëĭĪ
ì¦ Ī
Ġì £½
ì¦ Ŀ
Ġí Ķ
ľ ì°
ĠìĿ ĺ
ìĹĲ ê²Į
ìĺ Ī
Ġìķ ¡ìħĺ
ëĵ¤ ìĿĢ
ë¯ ¼
ìĽ Ģ
ãħ¡ ãħ¡
ì ½Ķ
Ġê ¼
Ġì ½Ķ
ìķ Ĭ
ê· ¹
Ġëª¨ ë¥´
Ġí ı
êµ Ĳ
Ġëª °
ĠìķĦ ê¹Ŀ
Ġì¶ Ķ
ìł ¸
ìłģ ìľ¼ë¡ľ
ìĿ´ ëĤĺ
ìĺ ¨
ì ¼
Ġí ĽĦ
Ġ 3
Ġê¸° ëĮĢ
ì² ľ
Į ìĿ´
ê²ł ëĭ¤
íĮ Ĳ
Ġìµľê³ł ìĿĺ
ìŀĪ ëĬĶ
ê² ¨
Ġí ŀ
íķ Ļ
» Ķ
ë¶Ģ íĦ°
íĸ ī
Ġë ĸ
ë© °
ìĶ ¨
ì ´
ĠìĦ ±
ľì° ®
ëĮĢ ë¡ľ
ĠìĿ´ íķ´
Ġëĺ Ĳ
ê¸ ī
íķľ ëĭ¤
ì° ¨
Īë Ħ¤
ëĤ ł
ë¡ Ŀ
íĭ °
íĸĪ ëĭ¤
ëĬ Ĳ
Ġíĺ Ħ
ìĭľ ê°Ħ
í ĽĦ
Ġí Ĭ
ĠìĹ° ì¶ľ
Ġíĸ Ī
Ġëĵ ¤
Ġë§Ī ì§Ģë§ī
Ġë¶ Ī
ë° °ìļ°
ĠìĿ´ ëłĩê²Į
ìŀ Ķ
Ġë¶ Ħ
Ġë© ĭ
ì £
Ġì²ĺ ìĿĮ
Ġê´ Ģ
ĠìĽ Ĳ
Ġì§ ľ
ĠìĿ´ ìķ¼ê¸°
Ġê· ¹
ìł Ī
ìłķ ëıĦ
íķ ©ëĭĪëĭ¤
íĺ ¸
íĶ ¼
Ġê¸° ìĸµ
Ġìľ Ħ
ĠëĶ °
ì§Ģ ëıĦ
Ġí Ľ
Ġí ģ
ì£¼ ëĬĶ
ê·¸ ëĥ¥
ì¹ ľ
Ġëı Ħ
ĠìĿ´ ê±´
ìĬ ´
"" ""
ë§ ¨
ìĤ ´
Ġìŀ¥ ë©´
ë ¸
âĻ ¥
íĤ ¤
ë¡ ł
Ġìµľ ìķħ
Ġê° ķ
íĺ Ģ
Ġë§İ ìĿ´
ë¥ ĺ
ë¬¸ ìĹĲ
ĠìĦ ¸
Ġí ıī
Ġíķľ êµŃ
Ġê·¸ ë¦¬ê³ł
Ġë§Į ëĵł
ëĤĺ ëĬĶ
Ġë ¬
ãħĭãħĭ ãħĭ
Ġëªħ ìŀĳ
Ġì Ī
Ġë ĳĲ
Īë Ŀ¼
Ġ íĻĶ
Ġëı Ļ
ĠìĻ ĦìłĦ
ìĿ´ ê±°
ë¦¬ ëĬĶ
ë³ ¼
ëĿ¼ ëĬĶ
ê¸ Ģ
Ġìŀ¬ë°Į ê²Į
ĠìķĦ ê¹Į
ëŁ ¼
ë¨ ¸
ì¢ Ģ
ëª »
ê°Ĳëı ħ
ìĹĨ ëĭ¤
ĠëĤ ľ
Ġë³ Ħë¡ľ
Ħ ìļĶ
Ġê·¸ ëŁ°
ìķĺ ëĭ¤
ë° ©
ĠìķĦ ìī
Ġì ºĲ
ìķ Į
Ġë³´ ìĹ¬
ë³´ ëĬĶ
Ķ ìĿ´
0 0
ë§ ¤
Īë ¬¼
ë³ Ħ
Ġê´ ľì°®
ĠìĿ´ ê±°
ê² °
Ġë° °
ĠìķĦëĭ Į
¿ Ĳ
ëł ¸
ë Ī
Ġí İ
ê²ĥ ëıĦ
Ġë ¡ľ
ëŃ Ĳ
íķĺ ëĤĺ
ãħĭãħĭãħĭãħĭ ãħĭãħĭãħĭãħĭ
Ġë³ Ħ
Ġëı Ī
ìĤ¬ëŀ Į
ë¦ Ń
íĺ ķ
ì ©
ë§Į ìĹĲ
ìĥ ī
ĠëĤ´ ê°Ģ
ì ³
ëģ ¼
ë¨ ¹
ìĻ ľ
ìŀ ĺ
Ġìŀ ¼
ãĦ ·
ìĿĦ ê¹Į
ê°Ģ ëĬĶ
Ġê°Ļ ìĿĢ
ëħ Ģ
ìķĦ ìĦľ
Ġìĸ´ ëĸ
ĠëŃ Ķ
ĠìĹĨ ê³ł
íħ Į
Ġë° ľ
ìĽ ł
ê· ¼
Ġëĭ ¹
° ĭ
ĠìķĦ ë¦Ħ
ìĻ Ķ
ê² ©
ë³ µ
Ġê·¸ ëŀĺ
ìĹĨ ìĿ´
ê¹ Ģ
ë¦ ¼
ìĪ ł
ëª ©
.... ....
í Ľ
¬ë¦ ¬
ìĹĪ ëĬĶëį°
Ġì§Ģ ê¸Ī
Ġê¹ Ģ
Ġìļ ¸
ĠíĬ ¹
ë Ĳ
ìĿ¸ ê°Ģ
ìĬ¤ íĨłë¦¬
ĠìĹ¬ ìŀĲ
íķĺ ê¸°
Ġí ĳľ
Ġê¼ Ń
ì ½
ĠëĬĲëĤ Į
ë ľ
ìĽ ĥ
Ġë§ ī
Ġíŀ ĺ
ëĭ Īë
ëĤ´ ìļ©
Ġìĭ ¬
ãħ ī
ĠìķĦê¹Ŀ ëĭ¤
ë´ ī
ì§ ±
ĠìĹ Ħ
ê ¼
ìĹ ĩ
íķĺ ë©´
ãħľ ãħľ
ìĺĢ ëĭ¤
Ġë§Ī ìĿĮ
Ġ ãħłãħł
ëĵľ ëĬĶ
ĠíĹ Ī
Ġì¤ Ħ
ìĺģíĻĶ ëĬĶ
"" "
ëĭĪ ê¹Į
¬ë Ŀ¼
ëĵľ ëĿ¼ë§Ī
ìĪ ľ
ëĤ´ ê°Ģ
Ġê· Ģ
ê° ķ
ì¹ ´
Ġí Ĩ
êµ¬ ëĤĺ
ĠìĿ Į
íĮ Į
ë§Ĳ ìĿ´
ì§ ĳ
ìĺģíĻĶ ê°Ģ
ìĿ´ ê²Į
ĠìĦ ¤
Ġì£¼ ìĿ¸ê³µ
Ġë§ Ŀ
íķĺ ì§Ģë§Į
Ġë³´ ë©´
ĠìĿ´ ìĥģ
Ġêµ ¬
ĠíıīìłĲ ìĿ´
ĠìĹ Ĳ
Ġì° ¨
Ġë Ĳ
ìķĦ ìļĶ
Ġëĭ ¨
Ġìł Ĳ
Ġë³´ ê¸°
ìĿ´ ê³ł
ĠìĺģíĻĶ ëĭ¤
Ķ ì§ģ
ê°Ĳëı Ļ
ìĺģíĻĶ ë¥¼
ëĵ ±
ë¹ ł
ë¯¸ ëĶĶ
ĠìĬ ¬
Ġì¡ ¸
íģ ¬
ì »
íĥ ľ
Ġë ¯
ĠëĤ ®
ìĿ¸ ì§Ģ
Ġë§¤ ëł¥
ìĬ¤ ëŁ½
Ġìļ Ķ
1 0
Ġë§ ŀ
ĠíĺĦ ìĭ¤
Ġê°Ģ ìŀ¥
ëĬĶ ëĭ¤
ëĬĶ ì§Ģ
Ġê± ¸
ĠëĨ Ĵ
ìķ Īë
ì° ¸
į ¼
ĠìĨ į
í ıī
ìĥ Ŀê°ģ
ì¼ Ģ
ìĸ ¸
ĠìķĦ ìĿ´
ìĸ ĳ
Ġëª° ìŀħ
ìĿ´ ê±´
ëĶ °
Ġ .
Ġë¹ ł
Ġë³¼ ë§Į
ìģ ĺ
ì§Ģ ë£¨
ë¦Ń íĦ°
ĠìŀĪ ëĭ¤
Ġìłķ ëıĦ
ĠíĿ ¥
Ġì§ľ ì¦Ŀ
íĮ ħ
Ġë ¦
Ġ ..
Ġëĭ¤ ë¥¸
ì£¼ ìĿ¸ê³µ
Ġë¬´ ìĬ¨
ĠìĦ ł
Ġìĸ ¼
ìĻ ĦìłĦ
Ġë§Įëĵ¤ ìĸ´
Ġìŀ Ķ
ìĶ ¬
Ġ ê³Ħ
ìĹ Īëįĺ
Ġãħĭãħĭ ãħĭ
ì£ ł
ìĹĲ ëĬĶ
ĠëĮĢ íķľ
¨ ìĸ´
Ġìľł ì¹ĺ
Ġì¡ ´
ĠëĪ Īë¬¼
ãħ ĩ
ë° °
ë° Ľ
ìĬ¤ ëŁ¬
Ġì¶ ©
ì§Ģ ê³ł
ì§Ģ ìķĬ
ĠìĿ´ ê²Į
ëĤĺ ìĦľ
ìĤ ¬ë
Ġ ê³¼
ëĶ ©
ĠìķĪë Ĳĺ
Ġìł ģ
ĠìĹŃ ìĭľ
Ġíķ ĦìļĶ
ĠìĦ ľ
ëĬ ¥
Ġ ãħİãħİ
ìĤ °
Ġìĥ Ŀ
ì²ĺ ëŁ¼
Ġìļ° ë¦¬
Ġëĵ ¯
ĠìłĦ ê°ľ
ì ±
Ķì§ģ íŀĪ
Ġë°ĺ ìłĦ
ëł¤ ê³ł
ì ĵ°ëłĪê¸°
ëĤĺ ìĺ¤
íĽ Ī
Ġ ãħĭ
ĠëĪ Ħ
Ġê± ´
í Ī
ë© Ķ
ì¡ Į
ĠëĪ Ī
Ġê³µ íı¬
ĠëĤ¨ ìŀĲ
ëŀ ľ
ĠìĬ¤ ë¦´
¾ Į
ì¦ ĺ
Ġë° ©
Ġì§ ĳ
ìŀ¬ë¯¸ ìŀĪ
ì³ Ĳ
ë§ ģ
ìĹĪ ìĿĮ
Ġë° ķ
ëĭ¤ ëĭĪ
ĠìĿ¸ ìĥĿ
Ġíı ¬
êµ ¬ë
êµ ¿
ĸ ìĹĲ
ìŀ ¡
Ġì ¦
Ġëı Į
íģ ¼
Ġë »Ķ
íĶ Ī
Ġì° ¾
ĠìķĦ ë¬´
Ġíķĺ ì§Ģë§Į
ĠìĿ¼ ë³¸
ĠìĪĺ ì¤Ģ
ëĬĶ ê±°
íĨ µ
ê» ĺ
ë¶ Ī
ë§Ī ì§Ģë§ī
ëĭ¤ ìļ´
íĥ Ħ
ìĦ Ŀ
Ġê¸ ´
Ġê°Ģ ìĬ´
Ġë§İ ìĿĢ
ìĤ¬ëŀ ĳ
ì Ł
Ġíķĺ ê³ł
¸ ìłľ
ì ¾Į
ëĭ ¬
Ġ ãħ¡ãħ¡
Ġë° Ľ
ì¤ĳ ìĹĲ
ĠëģĿ ê¹Įì§Ģ
Ġìĸ µ
Īë °
Ġì ±
ëĵ¤ ìĿĦ
ìĬ¤ íĦ°
į ¨
» ê²Į
ë¦ ½
Ġì§ ±
ëĤĺ ëĿ¼
Ġí Ĵ
ĠìķĦëĭ ĪëĿ¼
ĠìĿ¸ ê°Ħ
Ġìĺģ ìĥģ
Ġ OO
ìĸ ¼
ìĿ´ ì§Ģ
Ĵ ¤
ê» ´
ë¦¬ ì¦Ī
ëįĶ ëĿ¼
Ġí ĭ
Ġë´Ĳ ëıĦ
íĿ ¬
Ġë Ĳľ
ê¸° ëıĦ
Ġíĸ ī
º ¼
ìĨ ¡
íĸ Īëįĺ
Ġëª¨ ëĳĲ
Ġì° į
Ġê·¹ ìŀ¥
íĻ ©
ìŀ¥ ë©´
ĠìĪ ľ
ì £½
.. ...
Ġíİ ¸
ĠíĶ ¼
ìĹŃ ìĭľ
ëĲĺ ëĬĶ
Ġìļ ķ
ìł ĳ
Ġì¶Ķ ì²ľ
ì£¼ ê³ł
ł ¤
Ġëª¨ ëĵł
ëĦ ĺ
ê ¶
ë§ İ
Ġë´¤ ëĭ¤
ìŁ ģ
ìĬ¤ íĬ¸
Ġê· ¼
ìĿĦ ëķĮ
Ġìŀ ¬
ìķĦ ìĿ´
Ġê°Ļ ëĭ¤
ëĬ ĺ
ĠìĿĮ ìķħ
Ġìĭ¤ ë§Ŀ
Ġë¨ ¸
ĪëĦ¤ ìļĶ
ë§Į ëĵ¤
ì¢ ħ
ë ¿Ĳ
Ġì ĵ°
ë¦¬ ê°Ģ
ìĹĲ ëıĦ
ĠìĻ ¸
Ġëª ĩ
Īë ĮĢ
ìĿ´ ìĥģ
ìĿ´ ëŀĳ
ê±´ ì§Ģ
ëĨ ĵ
ìĹĨ ê³ł
ĠìĻ Ħ
ìĦ Ń
Ġê² Į
Ġ '
ĠìķĦ ì§ģ
ë ĺ
Ġí Ĥ
ìĪĺ ë¡Ŀ
ĠëĤĺ ìĺ¨
ĠìłĦ íĺĢ
íĸĪ ëĬĶëį°
ĵ ¤
ĠìĹ ´
Ġë¨ ¹
ë´Ĳ ëıĦ
ìĻ ¸
Ġëª¨ ìĬµ
ĠìĹ°ê¸° ëł¥
Ġíķľ ë²Ī
Ġìĸµ ì§Ģ
Ġì¤ Ģ
ëľ »
Ġ 4
íĬ ¹
ìłĲ ëıĦ
Ġê² ½
Ġ ...
ĠìºĲ ë¦ŃíĦ°
ìŀ¥ ê°Ĳ
ìĿ´ëĿ¼ ëĬĶ
ëĵ¤ ëıĦ
Ŀ ½
ìĿ´ ëĬĶ
ĠëĤ´ ëĤ´
Ġê²° ë§Ĳ
í į¼
ëı ħ
ê¸° ëĬĶ
ìĬ ¹
Ġì¢ĭ ëĭ¤
Ġíĳľ íĺĦ
ëĮĢ ì²´
Ġê³µ ê°Ĳ
Ġë³´ ì§Ģ
ìĪĺ ê°Ģ
ĠëĨ Ģ
Ġì¹ ĺ
ĠìķĬ ê³ł
Ġê³Ħ ìĨį
© ĶìĿ´
íĥĢ ìŀĦ
Ġê° Ħ
Ġ íķ¨
ëı Ī
Ġì¶ ľ
ë§ ŀ
ê¸° ëĮĢ
ìĸ´ ìķ¼
íķĺ ëĦ¤ìļĶ
ìĹĪ ìĸ´ìļĶ
Ġ 8
ĠìĹ¬ ìļ´
ëŁ ¬ë
Ġì½Ķ ë¯¸ëĶĶ
ì¢ĭ ìĿĢ
í ĳľ
ĠìĿ´ ìłľ
Ġë§Ĳ ìĿ´
ë¸ Į
ľ ´
ì¡ ´
Ġ 9
íķĺ ëĦ¤
ĠìĺģíĻĶ ìĹĲ
ê ¾
ëĤ´ ëĤ´
ë ķ
ëĿ¼ ëıĦ
Ġëĵ ±
íĻ ĺ
ìłĦ ìĹĲ
Ġë² Ħ
ĠëĮĢ ëĭ¨
ëķĮ ë¬¸ìĹĲ
Ġê ¶
Ġì »
ĠìĹĦ ì²Ń
íĹ Ī
ĠëĶ ±
ĠëĤĺìĺ¤ ëĬĶ
ê·¸ ëŀĺ
Ġëĭ µ
ëģ Ŀ
Ġ 5
ëĭ ´
ë »Ķ
ê° Ŀ
Ġì¦ Ĳ
Ġë Ŀ¼
ĠìķĦ ëĭĪëĭ¤
Ġëĸ ¨ìĸ´
Ġêµ Ĳ
ëĿ¼ ë¦¬
ĠìĹ ī
ĠìķĬ ìĿĢ
~~ ~
ĠëĬĲ ê»´
ìĿ´ ê°Ģ
ëŀ Į
ë² Ķ
íķľ íħĮ
ê¸° ìĹĲ
Ġê° Ī
Ł ¬
ìĸ´ ëıĦ
Ġ 7
ìķ ¡ìħĺ
ë¦¬ ìĺ¤
Ġê·¸ ëłĩ
ìķ ½
ë§Į íķľ
Ġë¯ ¿
ĠìĺģíĻĶ ìĿĺ
ì´ Ī
ìłĲ ìĿ´
Ġìŀ ħ
Ġíĺ ¸
ëĭ¤ ë©´
íķ´ ìļĶ
ĠìķĦìī ½
íķĺ ë©´ìĦľ
Ġìķ ½
ìĦ± ìĿ´
Ġë§Į ëĵľëĬĶ
ĠìĹ°ê¸° ê°Ģ
ëĿ¼ ë§Īë
ì ĵ°
ì²ĺ ìĿĮ
ë¥ Ń
ìĿ´ëĿ¼ ê³ł
ëĭ¤ ìĭľ
ìĹ Ħ
ĠìŀĲ ì²´
ë Ŀ½
Ġê°ľ ë´ī
ãĦ· ãĦ·
ë³ ĳ
íģ Ĳ
ìŀ ĩ
íĸ ¥
ĠìĨ Ĳ
ìĹ ħ
Ġê ¿
Ķ Ķ
ł Ī
ë§Į íģ¼
ĠëŃĶ ê°Ģ
ìµľê³ł ìĿĺ
ĠíĮ Į
Ġìĸ´ëĸ »ê²Į
Ġëĭ ´
Ġëĸ ł
Ġê¸° ë¶Ħ
ĠìĽĲ ìŀĳ
ĠíĿ¥ ë¯¸
ĠìĻ Ģ
Ġë´Ĳ ìķ¼
ìľ¼ ëĤĺ
ĠìķĦìī ¬
ê°Ļ ëĭ¤
Ġìĭ ¸
Ġì¹ ľ
Į ë¥Ń
ë´¤ ëĬĶëį°
ìķĦ ëĭĪ
ëįĺ ëį°
Ġë ¬¼
ìĿ¸ ëĵ¯
Īë° ĺ
Īë ¡ľ
ëĶ ´
ëĤ ¬
Ġìŀ¬ë¯¸ìŀĪ ê²Į
ĳ ĺ
ê¸° ê°Ģ
ĠëĤĺ ìĻĶ
ìŀĪ ëĭ¤
ëĬĶ ê²Į
íĺ ¼
Ġ ãħĭãħĭãħĭãħĭ
Ġìµľìķħ ìĿĺ
Ġê°Ģ ì¡±
íķľ êµŃ
ì° ½
ìĿ´ ëŀĢ
Ġ ê³
ĠìķĦ ì£¼
Ġë¶Ģ ì¡±
ìŀ¬ë °ĭ
Ġ -
Ġê·¸ëŀĺ ëıĦ
ĠìĹ°ê¸° ëıĦ
Ġìķ ħ
Ġìłľ ìĿ¼
Ġëı ħ
ëħĦ ëĮĢ
ĠìķĦëĭĪ ê³ł
Ġë ¸
ĠìĤ ¶
ëĤľ ëĭ¤
ĠìķĦê¹Į ìļ´
ìĹĨ ìĿĮ
ë³ Ħë¡ľ
ìģ ľ
ì ºĲ
ì§Ģ ê¸Ī
ĠìķĬ ëĬĶ
ĠëĮĢ ë°ķ
ë³´ ë©´
Ġìłľ ëĮĢë¡ľ
Ġê·¼ ëį°
ĠìĹ ¬ë
ì¹ĺ ëĬĶ
© ´
ê ¿
ì į¨
ãħī ãħī
ì§ Ĳ
íķ´ ëıĦ
Į į
Ġê ½
Ġìŀ ł
Ġìĸ´ ëĶĶ
Ġ ãħ
Ġìŀ Ĭ
Ġíĥ Ģ
Ġì Ķ
íĮ ¨
ë¹ Ļ
Ġë³´ ëĭ¤
ĠëķĮ ë¬¸ìĹĲ
Ġìŀ¬ë °ĭ
ìĹ¬ ìŀĲ
íıīìłĲ ìĿ´
ĠìĨĮ ìŀ¬
Ġëª ©
ê º¼
ìĹ ¬ë
ìĺ ¬
íķł ìĪĺ
ĠìĿ´ ìľł
íĪ ¬
· ¨
ìĨ Ķì§ģíŀĪ
Ġì¡° ê¸Ī
ì ¸
ìĻ ķ
Ġë© Ķ
ĠëĤ ł
ìĹĲ ìļĶ
Ġì§ Ī
íģ ´
ëĤĺ ê³ł
ëĤĺ ëıĦ
ìµľ ìķħ
ĠìĺģíĻĶ ëĿ¼ê³ł
ë£ ¡
ĠëĤ´ìļ© ìĿ´
ĠëĲ ł
ìĭ¶ ëĭ¤
ë² ½
ê° Ī
ë¦¬ë ¥¼
ì§Ħ ëĭ¤
~~ ~~
Ġìĭ¶ ìĿĢ
ĵ ¸
ìĿ´ ëłĩê²Į
Ġë³´ ê²Į
ìķĺ ëĬĶëį°
ë§Ī ëĭ¤
Ġì¹ ´
ëĤĺ ë¦¬ìĺ¤
¬ ë§ģ
Ġë² ł
Ĳ ëĭ¤
ëĪ Ħ
ìĿ´ ëĦ¤
ê¸° ë¥¼
ĠëĤĺ ìĻĢ
ìłģìĿ´ ê³ł
Ġëª¨ë¥´ ê²ł
íķĺ ëĬĶëį°
êµ° ìļĶ
ê¶ Į
ëı Į
ìĬ¤ íĮħ
ĠëĬĲ ëģ¼
Ġë°°ìļ° ëĵ¤
Ġê¸´ ìŀ¥ê°Ĳ
ê¾ ¸
ìĿ´ ìķ¼
Ġìķ ŀ
ëĤĺ ìļĶ
ëŀľ ë§ĮìĹĲ
ĠìĤ´ ìķĦ
Ġìŀ¬ë°Į ëĭ¤
ê³ ¤
ìłĲ ìĿĢ
ĠìĺģíĻĶ ìŀħëĭĪëĭ¤
Ġíĺ ķ
ìĬ¤ëŁ¬ ìļ´
ĠíĨ µ
ê² ģ
ìĺģíĻĶ ìĿĺ
ë° ĸìĹĲ
ĠíĬ¹ íŀĪ
ĠìĺģíĻĶ ë¡ľ
ë¸ Ķ
êµ ´
Ġìĭ¶ ëĭ¤
ĠìĿĺ ë¯¸
ĠìĺģíĻĶ ìĺĢ
ì¤ ĺ
ìĹĪ ìĬµëĭĪëĭ¤
Ġìłķ ìĭł
ìľ¼ë¡ľ ëıĦ
Ġêµ ¿
Ġë§ī ìŀ¥
Ľ °
ìłķ ìĿ´
ĠëĮĢ ìĤ¬
Ġì£¼ ëĬĶ
Ġìĭ «
Ġìĭľ ìŀĳ
ìļ ±
Ġìł ĪëĮĢ
Ġì¢ĭ ê³ł
Ġìłľ ìŀĳ
âĻ¥ âĻ¥
ìķĦ ëĭ
ê· Ģ
ĠëĤ´ìļ© ëıĦ
Ġëħ¸ ëŀĺ
Ġëį °
ĠíĽ Įë¥Ń
Ġì² ľ
Ġìĸ´ ì©
Ġìķ ¼
Ġê° ģ
ëĦ Ī
Ġë Ĵ¤
ĠëĲĺ ëĬĶ
ĠìķĦë¦Ħ ëĭ¤ìļ´
ëį ķ
ëł ¨
íķ´ ìķ¼
ĠëĤ¨ ëĬĶ
Ġ ^^
ĠíĽ ¨
ĠìĽĥ ê¸°
íĬ ¼
ë¯ ¹
ì§Ģ ê°Ģ
ì§ ¸
Ġë¶Ģ ë¶Ħ
ëĨ Ī
ëĭĪë ©ĶìĿ´
Ġì¶ľ ìĹ°
ĠìĪĺ ìŀĳ
Ġì´ Ī
ĥ Ĳ
Ġë¦ ¬
ëĤ ¸
ì¢ĭ ìķĦ
ìĿ¸ ìłģìľ¼ë¡ľ
Īë Ķ
ì¤Ģ ëĭ¤
ëĭĪë©ĶìĿ´ ìħĺ
íķ ©
Ġë ľ
ìĭ¶ ìĿĢ
í ľ´
ëĤĺ ê²Į
Ġë³ µ
ĠìĹĨ ìĿĮ
?? ?
ë§Ī ëĤĺ
Ġì¤ĳ ê°Ħ
ìĿ¸ ìĿ´
ë² ķ
Ġ ãħł
ìĬ ¬
Ġë łĪ
Ģ ìĸ´
ìĽĲ ìŀĳ
íķľ ëį°
Ġë´¤ ìĬµëĭĪëĭ¤
Ġë¹ ¼
ĠëĶ° ëľ»
ëŃ Ķ
ì¦ Į
;; ;
_ -
ì ¯
Ġë´¤ ëįĺ
Ġë¡ľ ë§¨
´ Ĳ
ì Įį
ë° ±
ëĵ Ŀ
Ġìĭľ ë¦¬ì¦Ī
íļ ¨
Ġ2 0
ì§ ĵ
ìĿ¸ ìĥĿ
ìĦ± ëıĦ
ê²ĥ ìĿ´
ì¹ĺ ê³ł
íħ Ĳ
ìĥ Ī
Ġë¬´ ìĦľ
Ġì¢ĭìķĺ ëĭ¤
ìŀĳ íĴĪ
Ġë¬´ ìĹĩ
ê´ ĳ
ĠëĶ Ķ
ìķĦ ê¹Ŀ
Ġìĸ´ ìĦ¤
ĠìķĮ ë°Ķ
ëĭ ¥
íķľ ê±°
Ġì¢ĭìķĦ íķĺëĬĶ
íĹ ĺ
ĠìĤ ¼
Ġìŀ¬ë¯¸ ëıĦ
Ġíĸī ë³µ
Ġë³´ ëĭ¤ê°Ģ
ì§ Ŀ
ìŀ ĸ
ìĿ¼ ë³¸
Ġêµ Ń
o o
ë© ĭ
Ġìŀ¬ë¯¸ìĹĨ ëĭ¤
ĠìĿ´íķ´ ê°Ģ
ĠìĤ °
íĶ Į
ìĹ ´
Ġê¹ Ĭ
ê² ¬
ĠìĿ´ ê±¸
ĠìĥĿê°ģ ìĿ´
¬ë§ģ íĥĢìŀĦ
ì¶ ©
ĠíĮ Ĳ
ëĶĶ ìĺ¤
ìłĲ ìĿĦ
Ġì§Ħ ìĭ¬
ìķĦ ë¬´
Ġë³ Ģ
ìĿ´ ëĦ¤ìļĶ
ìķĦ ê¹Į
ë¶Ģ ë¶Ħ
Ġìĭľê°Ħ ìĿ´
ìļ ķ
êµ¬ ë§Į
ĠíĻ į
,, ,
ĠìĿ¸ ìĥģ
ĠìĬ¤íĨłë¦¬ ëıĦ
ë¦¬ ì§Ģ
ĠëŃ ĺ
ìĤ ¼
Ġìĸ´ ìĥī
Ġë¬´ ìĦŃ
ĠìłĲ ìĪĺ
ĠìĹĨ ìĿ´
ë§ Ľ
ëıĻ ìķĪ
ìĹ ½
Ġíŀĺ ëĵ¤
ìłĲ ëĮĢ
Ġìŀĳ ê°Ģ
Ġëĵ¤ ìĸ´
ĠìķĦì§ģ ëıĦ
Ľ ëĤł
ë² ł
ĠìĬ¤íĨłë¦¬ ê°Ģ
Ġì ¼
ëŁ½ ê²Į
Ġëª» íķľ
Ġíķ¨ ê»ĺ
ĠìĿ´ ìĺģíĻĶ
ìļ° ë¦¬
Ġìłľ ëª©
Ġìķł ëĭĪ
ëģ Ķ
ëĤ¨ ìŀĲ
Ġê° ĳ
ì¶ ĺ
ìĿĦ ëĵ¯
Ġìŀ ¡
Ġê·¸ ëŁ¬
ĠìĹ¬ìļ´ ìĿ´
ĠìķĪë ³´
ĠíĻ ķ
Ł ¬ë
ĠëĦ ¤
ĠìĤ¬ ìĭ¤
Ġë ĳĺ
Ġê¸ ¸
Ġìĭľ ì²Ń
Ġê¶ ģ
ĠìĨĮ ë¦Ħ
ì¹ ¨
Ġëĭµ ëĭµ
ëħ¸ ìŀ¼
ĠìŀĲ ìĭł
ëĵ¤ ìĹĲê²Į
Ġë³´ ë©´ìĦľ
Ġê°Ĳëıħ ìĿĺ
ìħ ¨
Ġì ī
Ġë¬ ¸ìłľ
~ !
Ń ë¹Ħ
Ġì°¾ ìķĦ
ì ¿
Ġë ¿Ĳ
Ġë Ľ°
ìĿ´ ì§Ģë§Į
ëĺ Ĳ
Ġìĭł ìĦł
ìĿĮ ìķħ
ìĽ Ķ
íĺ ľ
Ġë©ĭ ì§Ħ
ìĿ´ ìķ¼ê¸°
Ġê¹ ¨
Ġíĭ °
ê±° ë¦¬
ê±´ ê°Ģ
Ġíķĺ ì§Ģ
Ġìĸ´ ìĿ´
Ġê´ľì°® ìĿĢ
ê² ¼
ìŀĲ ê¸°
ĠëĤĺ ë¦Ħ
ëįĶ ëĭĪ
Īëį Ķ
Ġ 6
íķĺ ìĭľ
Ġê°Ĳëıħ ìĿ´
Īë ³´
Ġë¹ ¨
ìĬ ·
Ġë¶Ħ ìľĦ
ĠíĹĪ ìłĳ
ĠìĬ¤ë¦´ ëŁ¬
ĠìĹ Ķ
ĠëĤ ļ
ëĿ¼ ìĿ´
ìĨĮ ë¦¬
ëĭ¤ ë¥¸
Īë ģ
êµ¬ ìļĶ
Ġê´Ģ ê°Ŀ
ê² Ł
ì£¼ ìĿĺ
Ġìļ ©
ëĤĺ ë§Ī
ĠìĦ¸ ìĥģ
Ġ C
ì£ Ħ
Ġë³´ ìĦ¸ìļĶ
Ġë¯¸ êµŃ
ĠìķĪ íĥĢ
ĠìŀĶ ìŀĶ
Ġìŀ¼ ìŀĪ
ëª °
âĻ ¡
Ġí ļ
Ġ """"
ë ĳ
Ġìŀ¬ë¯¸ ê°Ģ
Ġë¦ ¬ë
Ġìĭľ ëĤĺë¦¬ìĺ¤
Ġíģ °
ìľ ¤
ì¤ĳ ê°Ħ
Ġë§ ĺ
ë§Į ëĵł
Ġì¡¸ ìŀĳ
Īë ²
ĠíĿ Ĳ
ĠíĻ ©
ì» ¤
íķľ ìĺģíĻĶ
íķĺ ë©°
íķ¨ ìĿĦ
Ġ 0
ĠìļĶ ì¦ĺ
ìłĦ ê°ľ
ì¡ ¸
ĠìĹ°ê¸° ëĬĶ
ë¹ Ī
ì± ħ
ë§Īë Ŀ¼
Ġê¸ Ģ
íĥ Ŀ
ê°Ļ ìĿ´
Ġì°¨ ëĿ¼ë¦¬
ĠìŀĪ ìĹĪ
Ġë§Į íĻĶ
ì° ¬
Ġìĸ¼ ë§ĪëĤĺ
ĠëıĮ ìķĦ
ĠëĤĺ ëĬĶ
ëłĪ ìĿ´
Ġë°° ê²½
ĠìĬ¬ íĶĦ
Ġìĸ ¸ìłľ
Ġê°ķ ì¶Ķ
Ġì² ¨
ë§Īë ĶĶ
ĠíĻ ĺ
ĠíĽĦ íļĮ
Ġì ©
ì² Ļ
ĠëĬĲëĤ ĮìĿ´
Ġì¼ Ģ
ê¸¸ ëŀĺ
ĠìĻĦ ë²½
ĠëĤ «
ë³´ ëĭ¨
Ġíĺ ¼
!!!! !!!!
Ġìĸ´ëĸ ¤
ĠìķĦë¦Ħ ëĭµ
ê°Ģ ì§Ģ
ëĮĢ íķľ
Ġê·Ģ ìĹ¬
s t
Ġëª ¸
íĺĦ ìĭ¤
ì± Ħ
íĭ ±
ëĭ¹ íŀĪ
ĠìĺģíĻĶ ëĿ¼
ëŀ Ħ
ĠìķĬ ìķĺ
Ġìĸ ĳ
ê¹ Ĭ
ë³´ ëĭĪ
ëª ĩ
íĸĪ ìĿĮ
Ġê·¸ ìłĢ
ìĻ Ħ
ĠìĤ¬ëŀĮ ìĿ´
íķĻ êµĲ
Ġë»Ķ íķľ
Ġì£¼ ê³ł
ĠìķĮ ê³ł
Ġìĭ Ŀ
Ġê²ĥ ìĿ´
ì¤ Į
Ġëĭ¤ íģĲ
ãħłãħł ãħłãħł
Ġìķł ëĭĪë©ĶìĿ´ìħĺ
ĠíĨ ł
Ġë² Ķ
ëĬĲ ëĤ
ìŀĪ ê³ł
íĥ Ī
ìķĪë Ĳĺ
íħĲ ëį°
ĠìŀĪ ê³ł
Ġëĵľ ëĿ¼ë§Īë
ìĿ¸ ì¤Ħ
Ġìŀ¬ë°Į ëĬĶ
Ġìĸ ĺ
ìĿ´ ë²Ħ
ĠìĺģíĻĶ ëıĦ
ìľł ì¹ĺ
íı Ń
Ġì´ Ŀ
Ġì² Ń
ìŀ¬ë¯¸ ìĹĨ
Ġì¶Ķ ìĸµ
Ġ ãħİ
ĠìĽĥ ìĿĮ
ìĽ ħ
Ġëª¨ë¥´ ê²łëĭ¤
ĠíĿ ¬
Ġê¸°ìĸµ ìĹĲ
ìĭ ¸
Ġìŀ¥ ëĤľ
Ġìĭľ ëĮĢ
ĠìłĦ ìŁģ
Ġê°Ļ ìĿ´
Ġê·¸ ëłĩê²Į
ìĭľ ê¸¸
ëªħ ìŀĳ
Ġê¶ģ ê¸Ī
ê° ĳ
ê±° ì§Ģ
ì¼ ľ
íı ¬ë
ìĽł ëĭ¤
ëĵ¤ ê³¼
Ġì¶© ë¶Ħ
ëŁ ´
Ġíķľ ëĭ¤
ëł¤ ëĬĶ
ĠìĹĶ ëĶ©
Ġê°Ĳ ìłķ
ê´Ģ ìĹĲìĦľ
Ġê²° êµŃ
ì½ ©
ìĿ´ ê±¸
ì° į
ë¬´ ìĬ¨
2 0
Ġë´¤ ìĸ´ìļĶ
ê²ĥ ê°Ļ
Ġê¹ Į
ëĭ Ŀ
ìĬ¤ íĥĢ
ì° °
ë´ Ħ
ë¥´ ëĬĶ
ëł¥ ìĿ´
ĠìķĪëĲĺ ëĬĶ
Ģ ìŀ¼
ĠíĿ ĺ
Ġì§Ģë£¨ íķľ
ìłķ íķľ
Ġë¹ł ìł¸
ĠìĬ¤ íĥĢ
Ġì§ĳ ì¤ĳ
Ġë¬ ¸
Ġê¿ Ī
ìĿ¸ ê°Ħ
ìķ¼ ì§Ģ
ë²Ħ ë¦°
Ġì£¼ ìĹ°
íķ¨ ìĿ´
Ġê°ľ ìĹ°
ĠëĶ° ëĿ¼
Ġìĸ´ ë¦°
ìłľ ëª©
Ġë°°ìļ° ëĵ¤ìĿĺ
° °ìļ°
Ġí ħ
ëŁ Ń
ë° Ģ
Ġì¢ ħ
ĪëĶ ©
íİ ĺ
ê´ ´
ī ìŀ¥
Ġì £
ê° Ķ
ìĦ± ìĿĦ
Ġíı Ń
ëł¸ ëĭ¤
ĠíķĺëĤĺ ëıĦ
íĻ ľ
Ġìķ Ķ
ĠìĺģíĻĶ ì¤ĳ
Ġì¶© ê²©
ë³ Ģ
ìŀ¬ë°Į ê²Į
ëĲ ł
ĠìĺģíĻĶ ëĦ¤ìļĶ
Ġíķ Ļ
ĠíĶ Ħ
íĸĪ ì§Ģë§Į
Ġí Ī
ëģ Ħ
ĠìĺĪ ìĪł
ë¡ Ń
íİ¸ ìĿ´
ĠìľĦ íķ´
Ġ B
Ġëģ Į
ëĨĵ ê³ł
ìĪĺ ì¤Ģ
Ġì½Ķ ë¯¹
ëĮĢ ë°ķ
ìŀĲ ì²´
Ġ t
Ġ ãħľãħľ
ĠìķĬ ëĬĶëĭ¤
ìĺģ ìĥģ
Ġì§Ħ ë¶Ģ
Ġìŀ¬ë°Į ìĸ´ìļĶ
íķĺ íķĺ
Ġìŀ Ħ
Ġí Ħ°
.... ..
ĠëĽ° ìĸ´
ìĭľ ëĮĢ
ĠìĬ¤ íĨł
Ġëı ĭ
?? ??
Į ĵ
ì¹ ł
ëĿ¼ ë©´
ĠìľĦ íķľ
ìĿ´ ìĺģíĻĶ
ê¸° ë§Į
íķ´ ì§ĢëĬĶ
ìĪĺ ìŀĪ
ê³µ íı¬
Ġë¯ ¼
ĠìĿ´ ìģĺ
íŀ Īë
Ġì§Ģë£¨ íķĺê³ł
Ġì» ¤
ĠìĻľ ìĿ´
ìĽĮ ìĦľ
ëĲľ ëĭ¤
ë¦¬ ìĬ¤
Ġíĥ ľ
ĠìĹĨ ìĹĪëĭ¤
ĠëĤĺ ëıĦ
ìī ¬
ìķĦ ì£¼
ë³´ëĭ¤ ê°Ģ
ĠíĮ ¨
ê°Ģ ìĦľ
ìĿ´ëĿ¼ ëıĦ
Ġë¹Ħ ìĬ·
ĵ ´
ëĭ¹ ìĭľ
Ġëª°ìŀħ ëıĦ
ìħ Ķ
ľ ë¡ľ
íĻ į
ĠìĿ´ ë¦Ħ
ì² ł
ĠìĿ ½
Ġì± ħ
ìł ł
ê²ĥ ìĿĦ
Ġë§Įëĵ¤ ìĹĪ
ê·¸ ë¦¬ê³ł
ĠìĨ Ķì§ģíŀĪ
Ġë° ±
íĺ ¹
Ġê± į
Ġíĥ Ħ
Ġíģ ´
Ġ ,
ê·¸ ëŁ°
ëĵ¯ íķľ
ĠìĤ¬ëŀĮ ëĵ¤
ìĺ ´
Ġì§Ģë£¨ íķĺëĭ¤
ĠìºĲ ìĬ¤íĮħ
ë³´ ê¸°
ì½Ķ ë¯¸ëĶĶ
íĸ ĩ
Ġê´ ´
ëĨ Ģ
Ġì£¼ ìłľ
Ġìľł ì¾Į
ĠíĮ ¬
ĠíĽ¨ ìĶ¬
ìĿ´ ìłľ
Ġë¨ ¼
ìĺ ¬ë
Ġê·¸ ë§Į
Ġìĸ´ ëĬĲ
Ġë¹Ħ êµĲ
ãĦ ±
Ġë¶Ī ìĮį
Ġìļ°ë¦¬ ëĤĺëĿ¼
ì °Į
Ġ !
ìĿ¸ ìĿĺ
ë°ĺ ìłĦ
Ġìĸ¼ êµ´
Ġìĥģ ìĥģ
ìĨĮ ìŀ¬
Ġëĺ ĳ
Ġê³µíı¬ ìĺģíĻĶ
ĠOO O
ìĸ´ ëĸ
Ġë³ ĳ
ë³´ ì§Ģ
Ġë¶ Īë
ê²ł ì§Ģë§Į
íĿ ¥
Ġê±¸ ìŀĳ
ĠíĶ Ħë¡ľ
ĠëĪĪë¬¼ ìĿ´
ĠëįĶ ë¹Ļ
Ġìĺ¤ ëŀĺ
ìŀĶ ìŀĶ
ĠëıĦ ëĮĢì²´
¬ ëĭ¤
ê¼ Ń
Ġìµľê³ł ëĭ¤
ì§Ģ ì§Ģ
Ġë§Īì§Ģë§ī ìĹĲ
Ġì± Ħ
Ġê²ĥ ìĿĦ
Ġê°ĲëıĻ ëıĦ
ìĭľ íĤ¤
ĠìĹ°ê¸° ë¥¼
íĥĢ ì§Ģ
ĠìķĮ ìķĺ
Ġë² Ī
ĠìĦ¤ ìłķ
íķľ ë²Ī
Ġìĥ ī
Ġë³´ìĹ¬ ì£¼ëĬĶ
ľ ìĹĲ
ìľ¼ ëĭĪ
ìłķëıĦ ë¡ľ
ìĿ´ ìĹĪëĭ¤
ë¥ ł
¬ë§ģíĥĢìŀĦ ìļ©
ĠìŀĪ ìĿĦ
Ġê¸°ìĸµ ìĿ´
ìļĶ ì¦ĺ
Ġë° ĸìĹĲ
ĠìĹĨ ìĸ´
ë£ Į
íĶ ½
ëĤĺ ìĺ¨
ë´ £
ê²ł ì§Ģ
ê·¹ ìŀ¥
Ġë§¤ ìļ°
ĠìĿ´ ëĶ´
Ġê° ĸ
Ġê²ĥ ëıĦ
ãħĩ ãħĩ
ĠìĹī ìĦ±
ë§ī ìŀ¥
ì¯ ¤
ëĶ ±
ìĹ° ì¶ľ
ĠëĬĲëĤ Ħ
£ ¨
ë »
ìĬ¤ëŁ½ ëĭ¤
íķ ĦìļĶ
oo d
ê°Ģ ìĬ´
ë³´ ë©´ìĦľ
ìĬ¤ ë¦´
ì§Ħ ìĭ¬
ìĹĶ ëĶ©
ìĬ¤ ê°Ģ
ë§Ī ìĿĮ
ìĿ´ëĿ¼ ë©´
ĠìķĮ ê²Į
Ġê°ĲëıĻ ìłģìĿ´
ë¨ ¼
íģ ¬ë
Ġì¢ĭìķĦ ìļĶ
ĠìĪľ ìĪĺ
ê ½
ëŀ Ĳ
Ġìĥģ íĻ©
ĩ ¼
ì§ ķ
ãħ ħ
ìĭľ ìłĪ
ë§Ĳ ê³ł
Ġê´ ĳ
Ġë§ Ľ
ĠëĮĢ íķ´
Ġìŀ¬ë°Į ìĿĮ
ê°ľ ëıĦ
ëħĦ ëıĦ
ë²Ħ ì§Ģ
ĠëĨ ĵ
Ġëĭ Ī
ë´¤ ëĭ¤
ë§İ ìĿĢ
ì¸ ł
ĠìŀĶ ìĿ¸
ĠìĺģíĻĶ ìĺĢëĭ¤
ë¡ł ê°Ģ
ìĸ´ ë¦´
ê¹ Ĳ
ê² Ĳ
ìłģ ìĿ´ëĭ¤
Ġë§Ĳ ëıĦ
Ġì§Ģë£¨ íķ¨
ĠíĽĦ ë°ĺ
Ġê½ ¤
´ ¤
ìķ Ĺ
ì§ľ ì¦Ŀ
Ġêµ °
ë¹ ¨
ĠìķĬ ëĭ¤
íķĻ ìĥĿ
ª ½
Ġë ķ
ìľ¼ ë©´ìĦľ
ìĺ¤ ëŀľë§ĮìĹĲ
íİ¸ ìĿĢ
ĠìĨĮ ìŀ¬ë
ì ĵ¸
Ġì£ Ħ
ë³´ ê²Į
Ġëĭ¹ ìĭľ
Ġê·¹ìŀ¥ ìĹĲìĦľ
´Ĳ ëıĦ
ëı ¼
Ġê·¸ ëĤĺë§Ī
ìĹĪ ê³ł
Ġê°Ļ ìķĦìļĶ
íĤ ¨
Ġë¸ Ķ
Ġì¢ĭ ê²ł
Ġë°Ķ ë¡ľ
ëĪ Ī
T V
ëŀ į
ê°Ĳ ìĿ´
Ġìłľ ë°ľ
;; ;;
ê±° ê°Ļ
ĠìĿ¸ ë¬¼
Ġê°Ī ìĪĺë¡Ŀ
Ġë³´ëĬĶ ëĤ´ëĤ´
ì³ ¤
ìķĦê¹Ŀ ëĭ¤
ìŀĸ ìķĦ
Ġë³´ ìķĺ
ĠìĹŃ ìĤ¬
ê´ ľì°®
ë Ĵ¤
ĠìĻ ł
ê±´ ëį°
Ġì ·¨
Ġë³´ ëĭĪ
Ġë¯¸ ì¹ľ
Ġëĺ ¥
Ġê°ĲëıĻ ìĿ´
ĠìĤ¬ëŀĮ ëĵ¤ìĿ´
e r
íķ´ ëĿ¼
ëħĦ ìĿ´
ê³ ¡
ìŀ¬ë°Į ìĸ´ìļĶ
Ġ ~
ìĨ Ĳ
ìŀ¬ë¯¸ ìĹĨëĭ¤
íĭ Ģ
Ġ o
ìĪĺ ë¥¼
ìĭł ìĿ´
Ġë¡ľë§¨ ìĬ¤
ê°Ģ ì¡±
ĠìĿ´ íĽĦ
ì§ľ ë¦¬
ìĹ° íŀĪ
ĠìķĦëĭ ĺ
ëª¨ ë¥´
ìŀĲ ê°Ģ
īìŀ¥ íŀĪ
ĠìĺģíĻĶ ìŀĦ
ëĵ¤ ìĸ´
ìŀ¬ë°Į ëĭ¤
ìķĮ ë°Ķ
ëĤĺìĺ¤ ëĬĶ
Ġ íķ´ìĦľ
ê°Ģ ê³ł
Ġë§ĺ ìĹĲ
ìķĦëĭ Į
í Ħ
ê±° ìķ¼
ëł¤ ìĦľ
ĠíĸĪ ëĬĶëį°
ìľ ¨
ê°ľ ë´ī
Ġë§ĪìĿĮ ìĿ´
ĵ ľ
ãħĭãħĭãħĭãħĭãħĭãħĭãħĭãħĭ ãħĭãħĭãħĭãħĭãħĭãħĭãħĭãħĭ
Ġìķ½ ê°Ħ
Ġê°Ĳ ìĤ¬
ê·¸ëŀĺ ëıĦ
ĠìĿ Ģ
ì£¼ ìĦ¸ìļĶ
ĠëĦĪë¬´ ëĤĺ
ĠëĬ ĺ
ìĶ ©
ëł ¹
êµ ³
íĴ į
íķ Ħ
íķł ëķĮ
Ġìŀĺ ëª»
ĠìķĪë Ĳ
ì´ Īë°ĺ
Ġíıī ê°Ģ
ĠìĥĿê°ģ ìĿĦ
Ġë² Į
Ġëĭ ¬
ĠìłĦ ë¶Ģ
Ġìĺ¤ ê¸Ģ
Ġìĺ¤ ëĬĺ
ì¡Į ëĭ¤
, .
ìĹ¬ ìĦľ
Ġì¤ĳ êµŃ
Ġë°ľ ìĹ°ê¸°
Ġì ³
ëĤ ®
Ġëĭ¤ ìĿĮ
ĠìĹ¬ ê¸°
ê² ¹
Ġê·¸ ëĮĢë¡ľ
Ġì² «
Ġê·¸ëŀĺ ìĦľ
ĠëĨĴ ìĿĢ
ĠíĴ į
Ġë¸ Į
ëĬĲëĤ Į
ë ļ
ê±° ëĤĺ
ĠìŀĪ ìĿĦê¹Į
Ġì² ł
® ¤
ìĽĮ ìļĶ
ĠìłķëıĦ ë¡ľ
ìĪ Ļ
ëĲ ¨
íĶ Ķ
ë¦° ëĭ¤
Ġì´ Īë°ĺ
Ġìĺģìĥģ ë¯¸
Ġìĸ´ ìļ¸
ĠìķĦìī½ ëĭ¤
ĠíĪ ¬
íķĺ ìŀĲ
ëħ Ĳ
Ġì§Ģ ëĤĺ
ëŃĶ ê°Ģ
Ġëĭ¤ ë¥´
ê°Ħ ëĭ¤
ĠíĿ Ķ
ë¨¸ ëĭĪ
Ġê°ĻìĿĢ ëį°
Ń ìĥģ
ĠìĿ´ ë¯¸
ìķĦ ìķ¼
ë§Ī ìĦ¸ìļĶ
ĠìŀĪ ì§Ģë§Į
Ġê·Ģ ìĹ½
ĠíĤ ¤
ê·¸ ëŀ
Ġë´Ĳ ìĦľ
Ĳ ë¦¬
Ġë§ Īë
Ġê¸° ëĭ¤
ê·¼ ëį°
ë¶Ħ ëĵ¤
ìĭľê°Ħ ìĿ´
ĠìĺģíĻĶ ìĿ¸ëį°
ìĺģíĻĶ ìĹĲ
ìĹĲìĦľ ëıĦ
Ġìĸ ¸
ĠëĶ ¸
ĠC G
ãħ Ĥ
ëĤ Ńë¹Ħ
ëĿ¼ ìĦľ
ë³´ëĭ¤ ëĬĶ
ë´¤ ìĬµëĭĪëĭ¤
Ġëĵ± ìŀ¥
ĠëĤĺìĻĢ ìĦľ
- _-
ëĤĺ ìĻĢ
Ġìĺ ¨
Ġìŀ¥ ë¥´
ĠìķĪë Ĳľ
ê°Ĳëıħ ìĿ´
ĠêµĲ íĽĪ
ĠëĮĢ ì²´
ìķ Ķ
Ġë´¤ ì§Ģë§Į
Įĵ ê¸Ģ
ìĺ ¥
Ġíķĺ ëĭ¤
ìŀĳ ê°Ģ
Ġìŀ¬ë°Į ê³ł
Ġ c
ìĿĦ ìĪĺ
ìĿĦ íħĲëį°
Ġì¢ĭìĿĢ ëį°
ĠìķĦë¦Ħ ëĭ¤
Ġ ãħīãħī
ìĺģíĻĶ ëĭ¤
ĠìĪ ¨
........ ........
¬ë¦¬ ìĬ¤
ìĤ¬ë ¥¼
ĠìłĦ ì²´
Ġë³´ê³ł ìĭ¶
ĠëĤ´ìļ© ìĿĢ
ì ·¨
Ġì ı
ìĹ ī
ìŀ ĪëĦ¤ìļĶ
ìĹĪ ì§Ģë§Į
Ġë³¼ ìĪĺ
Ġì¤Ģ ëĭ¤
Ġìł Ī
ìķĦ ë¦Ħ
ìķĦ ì§ģ
ĠìĤ¬ íļĮ
ãĦ ´
ë§ĪëĶĶ ë¡ľ
Ġ b
ìķ ŀ
Ġìĥ Īë¡ľ
Ġê°ĲëıĻ ìĿĦ
íķĺ ëĥĲ
ë© ĺ
ìĽĥ ìĿĮ
Ġì§ ģ
íĥ ķ
Ġê°ľ ìĿ¸ìłģìľ¼ë¡ľ
Ġë¹Ħ ëĶĶìĺ¤
ìĿ´ íķ´
¬ë¦ ¬ë
ì§Ģ ë¥¼
Īë ĥĲ
ê· ľ
¸ Į
ìĺĢ ìĿĮ
Ġë© į
¥ ´
â ĺ
ê³ł ëĬĶ
Ġìŀ ĥ
Ġìķ ķ
ĠìĦ ¹
ë°°ìļ° ëĵ¤
Ġì «
Ġë´ £
ìĹĲìĦľ ëĬĶ
ĠëįĶ ìļ±
ĠíķľêµŃ ìĺģíĻĶ
Ġì¡´ ìŀ¬
ìĭ Ń
Ġê±° ìĿĺ
Ġêµ¬ ìĦ±
Ġ ?
ëŁ ī
ëŀĳ ìĬ¤
ĠìĻ ķ
ëĭ¤ëĬĶ ê²Į
Ġëĭ¤ ìļ´
ìĤ¬ ê°Ģ
Ġíĺ¼ ìŀĲ
¶ Ģ
ìĹĲ ìĦł
ëĪ Īë¬¼
Ġ S
ë¡ľ ìļ´
ìĭľ ë¦¬ì¦Ī
Ġê°Ģ ì¹ĺ
íĮ ¬
ìĭ¤ ë§Ŀ
Ġìŀ¬ë¯¸ìĹĨ ìĿĮ
ì¶Ķ ì²ľ
ìĺĪ ìļĶ
ĠëĤ® ìĿĢ
ĠëĪĦ ê°Ģ
Ġíı¬ ìĬ¤íĦ°
ĩ Į
ĠìŀĪ ìĸ´ìĦľ
Ġìŀ¥ë©´ ìĿ´
Ġê°ĢìĬ´ ìĿ´
ìĿ´ íĮħ
íĭ ´
ëĨ Ķ
ìĿ¼ ìĿ´
ĠíĬ ¸
ìĭľ ëĭ¤
ìĪ ¨
ĠíĹ Īë¬´
Ġ s
ëĵ ¬
ìĤ¬ íļĮ
ĠìĹ¬ ì£¼ìĿ¸ê³µ
Ġì ½
ìĺ¤ ëĬĺ
Ġëĵ £
ë§İ ìĿ´
íĮ ĮìĿ´
ë²Ī ì§¸
ëıĦ ëĮĢì²´
íķľ ê²Į
ĠëĤĺ ìĺ¬
Ġê°ĲëıĻ ìłģìĿ¸
ĠìłĢ ëŁ°
~ !!
ìĿ´ íĬ¸
Ġê·¸ ë¦¬
ĠìĥĿê°ģ íķĺê²Į
g ood
ëĦ Ĳ
ìĨį ìĹĲ
Ġë§ĪìĿĮ ìĹĲ
ĠìķĦë¬´ ë¦¬
ìĹĲ ê²Ĳ
ĠìĿ´ ê²ĥ
ìĿ¸ ëĭ¤
ìĿ´ëĿ¼ ëĭĪ
ĠìĹĦ ë§Ī
ĠB ê¸ī
Ġì ĵ¸
íĻ ķ
Ġë°© ìĨ¡
ĠìĿ´ ìłķëıĦ
ìĸ´ ë¦°
ì¢ĭ ëĭ¤
ë©Ķ ëĶĶ
ĠìŀĲì²´ ê°Ģ
ë§Į íĻĶ
ĠìŀĪ ìĸ´
ê²° ë§Ĳ
Ġëĭ¨ ìĪľ
ëł µ
ĠìŀĪ ìĹĪëĭ¤
ìķĺ ìĿĮ
Ġë© ľë¡ľ
Ġë´Ĳ ëĿ¼
Īëģ ¼
ìĹ¬ ìļ´
ìłĢ íŀĪ
,, ,,
ë³´ëĬĶ ëĤ´ëĤ´
Ġì į¨
ëĿ¼ ëĭĪ
ë¶ ģ
ĠìĦ¸ ê³Ħ
ìĿ µ
ê¸° ê³ł
Ġë¹ µ
Ġìķł ëĵ¤
ĠìĺĪ ìģĺ
Ġ3 0
Ġ ãħ¡
ê¸ Īë
Ġëĭ¤ ëĵ¤
Ġë´¤ ìĿĮ
Ġëª» íķĺëĬĶ
ìĭ «
ìĺģíĻĶ ì¤ĳ
Ġë´ Ħ
ì½ ľ
ì ¥
ê¸° ìĸµ
íĸĪ ìĸ´ìļĶ
ëŁ¬ ìļ´
ëĤĺ ë¦Ħ
Ġ10 0
ĠìĺĪ ìĥģ
ĠíĸĪ ëĭ¤
ëĤ´ìļ© ìĿ´
Ġê°ģ ë³¸
íķĺ ëĭĪ
ĠìŀĪ ëĬĶëį°
Ġìĺ ĽëĤł
Ġë§Į ëĵľ
ëħĦ ìłĦ
Ġë¹ Ľ
ëĲĺ ê³ł
Ġì¤ĳ ìļĶ
íķĺì§Ģ ìķĬ
¬ë¦ °
ĠíĻĶ ëł¤
ì§Ģ ê²Į
ìĸ´ ê°Ģ
Ġì° ©
ì°¨ ëĿ¼ë¦¬
Ġê·¸ëŁ° ì§Ģ
ìĬ¤ëŁ½ ê³ł
Ġì¹ľ êµ¬
ë¦¬ íĭ°
ìĬ¤ ìĿĺ
ĠìĥĿê°ģ íķ´
Ġê°ľ ê·¸
ĠëģĿ ëĤĺ
ĠìŀĲ ìĹ°
ìľł ìĿĺ
ĠìķĦëĭ Ĳ
· °
Ġìŀ¬ë¯¸ìŀĪ ëĬĶ
ĠìĤ¼ ë¥ĺ
Ġì³ Ĳ
ê³ ¨
ëĵ¤ ìķĦ
ìļ° ëĵľ
Ġê°Ģ ì§Ģê³ł
ĠíıīìłĲ ìĿĦ
ìĸµ ì§Ģ
ĠìĬ¬ íĶĪ
Ġ (
Ġíĺ ¹
Ġìĥģ ëĭ¹íŀĪ
Ġëıĭ ë³´
ëıĦ ë¡Ŀ
ĠìĹĨ ìĸ´ìĦľ
ĠìŀĲ ê¸°
Ġê·¹ìŀ¥ íĮĲ
9 9
ĠìĻ Ķ
Ġë¶Ī íİ¸
Ġíĭ° ë¹Ħ
ìĿ´ ì½Ķ
ìķĺ ëįĺ
Ġíĸ ¥
Ġê²° ë§ĲìĿ´
Ġì į
¬ë į
ì§Ħ ì§Ħ
ìŀ¥ ëĤľ
ê°ľ ìĿ¸ìłģìľ¼ë¡ľ
Ġë¹Ħ íķ´
Ġíķ´ ëıĦ
Ġë³´ìĹ¬ ì£¼
Ġ ....
íı¬ ìĬ¤íĦ°
Ġì¦Ĳ ê±°
Ġìĸ´ìĦ¤ íĶĪ
ìĿ ĳ
¬ë ł¤
ìĿ¸ ë¬¼
Ġìĵ°ëłĪê¸° ìĺģíĻĶ
Ġì´ ĪëĶ©
Ġë¬ ĺ
ë§Īì§Ģë§ī ìĹĲ
Ġê·¸ëŁ¬ ëĤĺ
ëı ĭ
íĸĪ ê³ł
Ġêµ ³
Ġë² Ĺ
ĠìĤ¬ëŀĮ ìĿĢ
Ġíķ ©ëĭĪëĭ¤
ì¡° ê±´
Ġíŀ Ī
ĠìķĦëĭĮ ê°Ģ
i n
ë¯¼ êµŃ
Ġì¡´ ëĤĺ
ħ ëĭĪëĭ¤
ìľ¼ ë©°
ìłĦ ìŁģ
ëĭĺ ìĿĺ
Ġìĭ¤ íĻĶ
ìĺģíĻĶ ë¡ľ
Ġìĭ¤ ìłľ
Ġì¤ĳê°Ħ ìĹĲ
íĺ ĳ
ìĦ¸ ìĥģ
Ġìĺ¤ ëŀľë§ĮìĹĲ
ëĭ¹ íķľ
Ġìŀ¬ë¯¸ìĹĨ ëĬĶ
Īë ¡
ëķĮ ë§Īëĭ¤
Ġë°°ìļ° ëĵ¤ìĿ´
íķĺì§Ģ ëıĦ
Ġë³¼ë§Į íķľ
ê±° ëĭ¤
ëª¨ ëĵł
Ġëħ¸ ìŀ¼
ì¿ ł
Ġê º¼
ìĸ´ ëł¸
ë¯¸ êµŃ
Ġê²ĥ ìĿĢ
íĭ° ë¹Ħ
ĠìķĦê¹Į ìĽĢ
ĳ ¸
ìŀĪ ê²Į
íŀ ĺ
ìĿ¼ ê¹Į
ëįĺ ê°Ģ
ë¹ µ
ë¦ ¿
ĠìĤ ¬ë
ë´¤ ìĸ´ìļĶ
ë§Į ìľ¼ë¡ľëıĦ
ë¦¬ ìĿĺ
ë³¼ ë§Į
ë İ
ìľ ¡
ê¹ ¨
ëĵľ ëĿ¼ë§Īë
ĠëĬ ¥
íŀĪë ł¤
ìķĦ ëıĦ
ĠíĴ Ģìĸ´
ë»Ķ íķľ
ĠìĺģíĻĶ ê´ĢìĹĲìĦľ
íİ¸ ìĿĺ
ëķ Ĳ
ĠìĹ¬ë °°ìļ°
ĠíĮĲ íĥĢì§Ģ
ê± į
ĠìĹĨ ëĦ¤
ìĹĪ ìľ¼ë©´
ì° ©
ĠìĪĺ ê°Ģ
ì º
Ġêµ īìŀ¥íŀĪ
ì¡° ì°¨
ìĸ´ ì§ĢëĬĶ
ëĤ´ ëĬĶ
ĠìĬ¤íĨłë¦¬ ëĬĶ
ĠíĿ¥ íĸī
Ġëıħ íĬ¹
ĠìķĪë ³
ìķĦë¬´ ë¦¬
¥ ľ
¬ ìĺģ
íķĺ ê¸´
ë§Į ìĿĺ
ëł Īë
ê²ĥ ê°Ļëĭ¤
ìłľ ê°Ģ
Ġìĥģ ìĺģ
ë¦½ ëĭĪëĭ¤
Ġê°ĳ ìŀĲê¸°
ĠíĥĦ íĥĦ
Ġíķĺ ê²Į
Ġìļ ´
ìłĢ ìĶ¨
ĠìĦł íĥĿ
Ġê¶ Į
ĠëĦ¤ ìĿ´ë²Ħ
ĠìĹĲ ë¡ľ
Ġì§Ħ íĸī
Ġê°Ĳ ìĦ±
Ġìĸ´ì© Į
Ġìĭľì²Ń ë¥ł
Ġíļ Į
ë§Į ìĿ´
ê²ĥ ìĿĢ
Ġíķ Ńìĥģ
ĠìĪľ ê°Ħ
ë ¿
Ġìĭľ ì¦Į
ĠìĤ¬ëŀĮ ëĵ¤ìĿĢ
Ġìŀ¬ë¯¸ìŀĪ ëĭ¤
Ġì¶©ë¶Ħ íŀĪ
Ī ëĭ¤
ìĸ´ ëĤĺ
Ġëĵ ł
Ġìĸ´ ë¥¸
Ġê°Ģ ëĬĶ
Ġë¹ Į
ìŀ¬ë¯¸ ëıĦ
ĠëĲľ ëĭ¤
íķĺëĭ¤ ê³ł
Ġê·¸ ëħĢ
ì¤ ¬
ĠëĦ Ī
ì² ¨
Ġë§Į ì¡±
ĠëĬĲ ê¼
Ġíķ Ħ
ëĭĺ ìĿ´
ì½ ¤
Ġíħ Į
íķĺ ìĹ¬
Ġê² ģ
Ġìĭľ ìłĪ
íĸĪ ìĬµëĭĪëĭ¤
Ġì¢ĭ ê²łëĭ¤
Ġì¢Ģ ë¹Ħ
ĠìĹī ë§Ŀ
Ġìĸĺ ê¸°
ê³ ³
ìŀ ĪëĦ¤
Ġë³´ ëĬĶëį°
ĠíĿ ĳ
"""" """
ëĤ´ìļ© ëıĦ
Ġë¶ĦìľĦ ê¸°
ìĹ ĺ
ëŀ ¬
ë³ į
Ġìī ½
.... ...
ìĭ¤ íŀĪ
ĠìĿĺ ëıĦ
Ġë¨¸ ë¦¬
ĠìĿ´ ë²Ī
Ġê¸ ī
íĶ Ħë¡ľ
ĠíĹ ¤
ĠíĽ Ī
ê°ķ ì¶Ķ
ëķ ľìĹĲ
ìĹĦ ì²Ń
Ġë¦¬ ìĸ¼
í Ģ
Ġì ĵ´
ìĿ´ ëĥĲ
ìļ° ëĬĶ
Ġìŀ¬ë¯¸ ëĬĶ
Ġìŀĺ ë§Įëĵ¤
ĠëĪ Īë
Ġíķ´ ìķ¼
/ /
ì§Ģ ëĭ¤
ëł ¬
ĠëĨ Ī
íĿ Ĳ
ì´ Ŀ
ĠíĽĮë¥Ń íķľ
ìļ°ë¦¬ ëĤĺëĿ¼
ĠíĻĶ ë©´
Ġë¯¿ ê³ł
Ġìĸ´ì© Ķ
ĠìĥĪë¡ľ ìļ´
Ġê° Ķ
ìĭľ ê³ł
Ġì¢ĭ ëĦ¤ìļĶ
ĠìķĪíĥĢ ê¹Ŀ
ìĿ´ íķĺ
ĠìĺģíĻĶ ìĿ¸
Ġê·¸ ê²Į
ĠëĤĺ ìĿĺ
Ġê² Ģ
íķĺëĬĶ ê±°
Ġëª¨ë¥´ ê³ł
ë°°ìļ° ëĵ¤ìĿĺ
Ġë¹¨ ë¦¬
Ġ M
Ġìĸ´ ëł¤
ìłľ ë°ľ
Ġìŀ¬ë°Į ëĦ¤ìļĶ
ë³¸ ëĭ¤
ì¢ĭ ìķĦìļĶ
ĠìĤ´ ìĿ¸
ìĺ ĽëĤł
ìĺ¤ ëĬĶ
ìĦ¸ ê³Ħ
ìłĢ ëıĦ
ĠìķĦëĭ Īë
Ġì°¸ ê³ł
ë´Ĳ ìķ¼
ìĬ¤ ëŁ°
ĠìŀĪ ìĿĮ
ê· ł
ëħĦ ìĹĲ
ĠëŃĲ ê°Ģ
Ġíŀĺ ëĵł
ëª° ìŀħ
Ġì§ Ŀ
ìĺģíĻĶ ëıĦ
ĠìĹ¬ ìłĦ
ĠëŃĲ ëĥĲ
Ġë¬ »
íĺķ ìłģìĿ¸
ĠìķĦìī¬ ìļ´
ĠìķĪíĥĢ ê¹Į
ê·¸ëŀ ¨
Ġ O
ìĭľ ëĬĶ
ë² Īë
ê°Ħ ë§ĮìĹĲ
Ġì§Ħ ìłķíķľ
Ġë§Ī ìĿ´
ëĨ Ĵ
ê¿ Ģìŀ¼
ìµľìķħ ìĿĺ
ì ĩ¼
ĳ ìĹĲ
Ġë§ ¨
ëĤ´ ê³ł
Ġìľ ¼
Ġê´ ľ
Ġê²ĥ ìĿ´ëĭ¤
íĶĦ ëĭ¤
Ġê·¸ ëķĮ
ê²ł ëĦ¤
ĠëĮĢëĭ¨ íķľ
Ġë Ł¬
ìĿ´ ë©´
ìĸ´ ë¡ľ
ìŀĲ ìĿĺ
OO O
Ġë©ĭ ìŀĪ
Ġíģ ¬
Ġìĸ´ëĶĶ ìĦľ
ìĹ ĪëĦ¤ìļĶ
ĠìĨĮ ìĦ¤
ëĲĺ ìĸ´
Ħ¤ ìļĶ
Ġí Ģ
ĠìŀĪ ëĭ¤ëĬĶ
ĠìĿ´ ìĺģíĻĶë¥¼
ĠìĬ ¹
Ġíķľ ìĭ¬
íķ¨ ê³¼
ìłľ ìŀĳ
Ġê°Ĳ ìĥģ
ìĻ ł
ê·¸ ëŁ¬
Ġë¨¹ ë¨¹
íĦ ´
ìĬ¤ ë¥¼
ĠëĦ £
Ġë´¤ ëĦ¤ìļĶ
ĠìĨĮ ì¤ĳ
ĠëŃĲ ì§Ģ
ìĤ¬ëŀ ĮìĿ´
ĠìĦ± ìļ°
Ġëĭ¹ ìĭł
ìĬ¤íĨłë¦¬ ê°Ģ
íıī ê°Ģ
ĠíĤ ¬ë§ģíĥĢìŀĦìļ©
ĠìķĪëĲľ ëĭ¤
¬ ê¸Ī
ĠìĹĨ ìĿĦ
ĠìĹĨ ëĦ¤ìļĶ
ë² Į
ĠìĨ ¡
ĠëĲĺ ìĸ´
ĠëĬĲëģ¼ ê²Į
Ġê°ľìĹ° ìĦ±
Ġì °Į
ìĿ´ ë¸Ķ
ê³ł ìĭ¶
ëł Į
ê²ĥ ìĿ´ëĭ¤
ĠìķĮ ëł¤
Ġíıī ë²Ķ
ëľ ¨
ìłķ ìĭł
ìħ Ī
ë¦¬ë ¡ľ
ìĽĢ ìĿ´
Ġë§Ŀ ìŀĳ
Ġë¬¼ ë¡ł
ìºĲ ë¦ŃíĦ°
Ġ ãĦ·ãĦ·
¬ëŀ ĳ
Ġê°Ģ ëĬ¥
ĠëŃĲ ìķ¼
Ġíİ¸ ì§ĳ
Ġí ľ´
Ġë° Ģ
ìĹĨ ìĸ´
Ġíķĺ ë©´
ìķł ëĭĪ
Ġê´Ģ ëŀĮ
ëŀ Ļ
Ġìľ ¤
ìĺĢ ëĬĶëį°
ãĦ ¹
íĹ Ĳ
ĠìłĲ ìłĲ
ĠìļĶ ìĨĮ
Ġë§Į ìłĲ
íŀ Į
ĠìŀĲ ê·¹
ëħ¸ ëŀĺ
Ġ- _-
Ġìĺ¤ê¸Ģ ê±°
S T
ë Ģ
ì ª½
Ġë ĥ
ìŀĲ ëĵ¤
Ġì¤ ĺ
ìĸ´ëĸ »ê²Į
Ġ m
ìĦ ¼
íķĺëĬĶ ê²Į
ãħĭãħĭãħĭãħĭ ãħĭ
Ġë°Ķ ëĿ¼
ìĺĪ ìĤ°
ì» ¬
ª ¨
íĻĶ ê°Ģ
Ġê¹ Ķ
Ġ2 00
ĠìĤ¬ëŀĳ ìĿĦ
Ġì£½ ëĬĶ
Ġë³Ħ ìłĲ
Ġëĵ¯ íķľ
- -
1 2
ê¸° ìĹĶ
Ġë² ķ
Ġë§Įëĵ¤ ìĹĪëĭ¤
ì© Į
ĠëĤ« ëĭ¤
Ġì ¿
Ġë ½
ìł ¤
ĠëĤĺ ìģľ
Ġì¢ĭ ìĿĮ
Ġìĥ Ī
Ġìŀ¬ë°Į ìĹĪëĭ¤
ë¹ ¼
ìĭ¬ ìĿĦ
Ġëª¨ë¥´ ëĬĶ
ĠìłĦê°ľ ê°Ģ
ĠìĭĿ ìĥģ
ì į
ìĿ´ ëĶ´
íķľ ëĵ¯
íİ ĳ
ĠíıīìłĲ ìĿĢ
ìķĪ íķĺê³ł
Ġìŀħ ëĭĪëĭ¤
Ġë§ ¥
ĠëģĿ ëĤ´
Ġìŀ¬ë¯¸ìŀĪ ìĸ´ìļĶ
ê°ĻìĿĢ ëį°
ìµľê³ł ëĭ¤
ĠëĲ Ĳ
ĠìĤ ¬ëĿ¼
ìĹĨ ëĦ¤
ĠëĤĺ ìĿ´
íĴ ĭ
ĠìŀĲ ê¾¸
ĠìĿ´ìķ¼ê¸° ë¥¼
ĠíĿ¥ë¯¸ ì§Ħì§Ħ
ĠìĶ ¨
ì İ
ì ı
ë³´ ìĦ¸ìļĶ
ĠìĹ¬ ì£¼
ëŀ «
ĠìķĮ ìķĺëĭ¤
íı Ĳ
Ġíĭ Ģ
Ġ !!
Ġìĺ¤ íŀĪëł¤
ê» ı
Ġê¼ ¬
ìĽł ëįĺ
Ġë²Ķ ì£Ħ
ĠìĨĮ ë¦¬
Ġìĭ« ìĸ´
ëŀĦ ê¹Į
ìķĪëĲĺ ëĬĶ
Ġë Įĵê¸Ģ
ëĭ ¿
ëĤĺ ë©´
ìķĦ ìķĦ
ãħłãħł ãħł
ìĭ¬ ìĿ´
Ġë§Įëĵ¤ ì§Ģ
ìĭĿ ìĿ´
Ġì¢ĭìķĺ ìĸ´ìļĶ
ĠíĿĺ ëŁ¬
â Ģ
ì° ¾
Ġì° ½
Ġë¯¸ íĻĶ
Ġãħ ħ
ĠìĿ´ ë¦¬
ìĸ´ ìļ¸
ĠëĤĺ ëĿ¼
Ġì§Ħ ì§Ģ
íİ¸ ìĿĦ
ĠìĽĥ ê¸´
ë©Ķ ëĿ¼
Ġëª¨ìĬµ ìĿ´
ìĹ ĪëĦ¤
ĠìķĮ ìķĺëĬĶëį°
ê¼ ¬
êµ¿ êµ¿
ë³´ ëĬĶëį°
Ġìĺģ ìĽħ
ë´Ĳ ìĦľ
ĠìĦ¤ ëªħ
ìºĲ ìĬ¤íĮħ
Ġë £¨
Ġëĭ¤ íĸī
ìĦ¸ ê°Ģ
ë²Ī ìĿĦ
Ġìŀ¥ë©´ ìĿĢ
Ġì£¼ìĿ¸ê³µ ìĿ´
êµ¬ë ĵ¤
ì§ Īë
Ġìł Ĭ
ìķĦ ë¨¹
Ġê² ¨
ìĸ ĺ
ìĨĮ ìĦ¤
Ġë§Ĳ ê³ł
ëĺ ¥
Ġë©į ì²Ń
Ġ a
Ġê »
Ġê·¸ ëŁ´
ìĥģ ìĿĦ
ìī ½
Ġìĭł ê¸°
ĠìĹĦì²Ń ëĤľ
ĠìķĦ ë¹ł
ìłĲ ì¤Ģ
ĠìĦ± ë£¡
Ġë©Ķ ìĦ¸
h e
Ġê ¾
ëª ½
Ġë¬´ ì¡°ê±´
Ġì¤ĳ ìĹĲ
ìĹ°ê¸° ëıĦ
Ġíĸī ëıĻ
ìĸ´ ëĶĶ
Ġì§ §
ĠìłĦ ê¸°
íĶĦ ê³ł
Ġë³´ìĹ¬ ì¤Ģ
ìĭ ±
ë§Į íķĺë©´
ìĬ¤ ë¡ľ
ê·¸ ìłĢ
ì¤Ħ ìķĮ
ì¹ľ êµ¬
ĠíĻĶ ìĿ´íĮħ
Ġ9 0
ĠìĺģíĻĶìĺĢ ìĬµëĭĪëĭ¤
¶ Ħ
Ġì ¥
ê¸° ëĭ¤
ìĭľ ì¦Į
íĤ ¹
ĠìĹ°ì¶ľ ëł¥
ê°Ĳëıħ ìĿĺ
ĠìĬ¤íĥĢ ìĿ¼
ìŀ ł
ìķ Ļ
ìĸ´ ìĿ´
ë¦¬ ìķĦ
Ġê·¸ ë¦¼
ĠëĮĢ ìŀĳ
Ġì£½ ìĿĮ
? )
ë ½
íķĺ ê²ł
ëĤĺ ìĿ´
ë¦¬ ê²Į
íĮ Ķ
ìĨĮ íķľ
Ġëģ ¼
Ĵ ·
Ġë ®¤
ìĿ¸ ìĿĦ
Ġê·¸ ëĭ¥
Ġíķĺ ëĬĶëį°
Ġìĸ´ ë¦´
ĠìŀĳíĴĪ ìĿ´
Ġëħ¸ ëł¥
ĠìŀĬ íĺĢ
2 00
ìłķ ìĿĦ
Ġê°Ļ ëĦ¤ìļĶ
Ġë© ´
Ġìľł ë¨¸
ë¦¬ë Ŀ¼
ìŀ¬ë°Į ìĿĮ
Ġê´Ģ ê³Ħ
ĠìŀĶìŀĶ íķľ
ĠíĿ¬ ë§Ŀ
ê¸Īë ´ĲëıĦ
ĠìĿ´ ìĸ´
Ġë§ Īë¬´
ìĿ¸ ê±°
Ġëį ķ
ìĤ¬ ëĬĶ
Ġíķ ©
Ġê²° íĺ¼
Ġì¢ĭìķĺ ê³ł
ĠìĺģíĻĶ ìĹĲìĦľ
ë§Ĳ ë¡ľ
ìŀĲ ëĬĶ
ìŀĪ ìĸ´ìļĶ
íĥ ģ
Ġê°Ģ ëĵĿ
ì¹ĺ ê²Į
ĠíĹ Ĳë¦¬
ĠìĽĥ ê²¨
ë°© ìĨ¡
Ġë¬´ìĦľ ìļ´
ĩ ´
Ġë§Į íģ¼
ìĹ¬ ì£¼
ë¶Ħ ìĿ´
Ġì°¸ ìĭł
ĠëıĪ ì£¼ê³ł
ĠìķĦë¬´ ê²ĥëıĦ
©ĶìĿ´ íģ¬
ìĿ¸ ìĿĢ
Ġëª» ë³´
ìĤ¬ëŀĮ ëĵ¤
íķĺë©´ìĦľ ëıĦ
Ġê·¸ ëł¤
ê·¸ ëĿ¼
Ġ1 9
Ġì¢ĭìķĺ ìĬµëĭĪëĭ¤
ĠëĺĲ íķľ
ĠíĬ¹ ìľłìĿĺ
ĠíĽĪ íĽĪ
í ī
íķľ ê±´
ìĭľ ìŀĳ
Ġìĺ ¬
ìĺĢ ìĬµëĭĪëĭ¤
ĠìĬ¤íĨłë¦¬ ìĹĲ
ê¸´ ìŀ¥ê°Ĳ
ĠìķĦëĭĪ ì§Ģë§Į
ìŀ¬ë¯¸ìŀĪ ê²Į
Ġìĸµì§Ģ ë¡ľ
Ġì¦Ĳ ê²ģ
ê±¸ ê¹Į
ë´Ĳ ëĿ¼
Ġì½Ķ ë©ĶëĶĶ
ì½ ĺ
ĠëĨĢ ëĿ¼
ĠëĿ¼ ëĬĶ
ìķĦëĭĪ ê³ł
Ġë¡ľë§¨ íĭ±
Ġë³ĳ ë§Ľ
Ġ TV
ĠìĿ´ ëĶ°
íķ´ ì£¼
ìŀĲ ë¥¼
ë¶Ħ ìĹĲ
ëĦĪë¬´ ëĦĪë¬´
ĠìĻĦ ìĦ±ëıĦ
Ġê·¸ëłĩ ê³ł
ĠìĻĦë²½ íķľ
ë Į
ìĹ ¼
ìłĲ ì¤Ģëĭ¤
ĠëĤĺ ìģĺ
Ġì§Ħ ìĭ¤
ë¥´ ê³ł
Ġìķ¡ìħĺ ëıĦ
Ġëª¨ìĬµ ìĿĦ
Ġê¿ Ģìŀ¼
² Ħ
ì¦ Īë
ĠìķĬ ìĿĦ
ĠìĥĿê°ģ ë³´ëĭ¤
ìķł ëĵ¤
ëŃĲ ìķ¼
âĺ ħ
ĠìķĦëĭĲ ê¹Į
~ ^^
ìŀĪ ëĬĶëį°
ĠìĥĿê°ģ íķľëĭ¤
Ġëħ¸ ì¶ľ
Ġê¸°ëĮĢ íķĺê³ł
ĠìĦ± ìŀ¥
ëĵ± íķĻêµĲ
Ġê¹Ĭ ìĿĢ
íĻĶ ë¥¼
ëĵľ ê°Ģ
ê°Ĳ ìĿĦ
ĠëıĦ ìłĢíŀĪ
Ġë³µ ìĪĺ
ë» Ĳ
ë ĳĺ
ê³ł íİ¸
íķĺ ëįĺ
ê³¼ ëĬĶ
Ġë¶ ģ
ĠìķĬ ìķĺëĭ¤
ìĺĢ ëįĺ
ãħİãħİ ãħİ
Ġê°Ĳëıħ ìĿĢ
ìł¸ ìĦľ
ëĤ¬ ëĭ¤
ĠíĽĦë°ĺ ë¶Ģ
ĠìĿ¸ ìłķ
Ġë§Ĳ íķĺê³ł
ĠíĮ Ķ
Ġíıī ë¡łê°Ģ
Ġê·¸ëŀĺ íĶ½
Ġë¶Ģë¶Ħ ìĿ´
ī ´
ìĿ´ ìĹĲìļĶ
ĠìĺģíĻĶ ì¤ĳìĹĲ
ĠìķĦ ë²Ħì§Ģ
íķĺëĬĶ ì§Ģ
ëł¤ ë©´
Ġë³¸ ëĭ¤
ì¢ĭ ê³ł
ĠíĻį ì½©
íķľ ëĭ¤ëĬĶ
ëĤĺ ìĻĶ
ĠëįĶ ëŁ½ê²Į
ĠìķĪ ë§ŀ
Ġëª» íķĺê³ł
Ġìľł ëªħ
ìģ ¨
ĠëıĮ ëł¤
Ġê³ ¨
ĠëĶ°ëľ» íķľ
Ġë¹ĦìĬ· íķľ
ìķĦë¦Ħ ëĭ¤ìļ´
ëĭ «
ìĽ ¨
ìĹĪ ëĤĺ
ĠìķĬ ìĿĮ
Ġìłľ ê°Ģ
Ġíİ ĺ
ì§Ģë£¨ íķĺê³ł
Ġëľ ¬ê¸Ī
ì§Ģ ëª»
¬ë ĵ¤
ĠìĺģíĻĶ ìĿ´ëĭ¤
Ġìł ĳ
ìŀ¥ ìĿ´
ĠìķĪ ëĤĺìĺ¤
ë¯ ¿
Ġì´ Į
Ġë¶Ħ ëªħ
Ġê³¼ ê±°
o r
ìł ĪëĮĢ
ì§Ģ ëĦ¤ìļĶ
íķ´ ì£¼ëĬĶ
ëģ Į
íĿ ĳ
íĹ ¤
ĠìĹ°ì¶ľ ìĿ´
ìĪľ ê°Ħ
Ġë¨¼ ìłĢ
Ģ ë¡ľ
ìĹ ¿
ë¶ Īë
ìĪĺ ìŀĪëĬĶ
ìĿ¼ ë¿Ĳ
Ġìŀĺ ìĥĿ
ë§ ¹
ìĪĺ ëıĦ
Ġìĺ Īë
ì¶ ķ
íĸĪ ìľ¼ë©´
Ġê°Ļ ìĬµëĭĪëĭ¤
ëįĶ êµ°ìļĶ
Ġíķ´ ì£¼ëĬĶ
Ġê±° ì§Ģ
Ġë°Ķ ë³´
ëĸ ¨ìĸ´
Ġì´ ¬ìĺģ
ëĭµ ëĭµ
ĠìĦľ ë¡ľ
ê¸ Īë³´
ìŀĪ ìĿĮ
ĠìĬ Ī
ĠìķĮ ê²ł
Ġë¹ Ī
ëģĿ ê¹Įì§Ģ
ĠìķĦëĭĪë ©´
ê°Ģ ìļĶ
ëĵł ëĭ¤
ĠìĤ¬ ê±´
ĠëŃĶ ì§Ģ
ĠëĤĺìĺ¨ ëĭ¤
ìĹĦ ë§Ī
ĠS F
ìŀ ī
ìĥ Īëģ¼
íķł ëĵ¯
ìĦ± ìķł
Ġë°°ìļ° ê°Ģ
ìĹ°ê¸° ê°Ģ
ìłĪ íķľ
ëĲ Ĳ
Ġ ãħľ
.. ?
ëĮĢ ìĤ¬
íģ °
ëįĶ ë¹Ļ
ìĶ Ģ
Ġê¹ ľ
ìĬ¤íĨłë¦¬ ëıĦ
ĠíĶ¼ íķ´
íĬ¹ íŀĪ
Īë² ½
Ġë Ł¬ë
ìĿĺ ë¯¸
ë° ĭ
ìłĲ ì§ľë¦¬
ĠìŀĪ ìĹĪëįĺ
ìĺ¤ ëŀĺ
ëĤ´ ìļĶ
ëĶ ¸
ĠëĤ¨ ìķĦ
ì§ĢëıĦ ìķĬ
ĠìĿ¸ê°Ħ ìĿĺ
ëĨĵ ìĿĢ
ĠìĤ¶ ìĿĦ
ĠíĶĦ ëŀĳìĬ¤
ìĬ¤ë¦´ ëŁ¬
Ģ ëĭ¤
ĠìĺģíĻĶ ë³´ëĭ¤
ë§Ī ìĿ´
ì¶ °
Ġë°Ķ ëŀĮ
Ġìĺģ ìĽĲ
Ġì¢ĭìķĺ ìĿĮ
ĠëĬĲê»´ ì§ĢëĬĶ
Ġë¬´ìĹĩ ë³´ëĭ¤
ëĤĺìĺ¨ ëĭ¤
ìĸ´ ìĦ¤
ĠëĤ Ńë¹Ħ
ë§Į ìľ¼ë¡ľ
ëĮĢ ëĭ¨
ìķĺ ìĸ´ìļĶ
ë¬ ĺ
ĠìłĢ ì§Ī
Ġì¢ĭìĿĢ ìĺģíĻĶ
Ġëª° ëŀĲ
Ġíģ ¬ë¦¬ìĬ¤
Ġì§Ģê¸Ī ëıĦ
ĠìĿ´ìĥģ íķľ
Ġëĭ¤ìļ´ ë°Ľ
Ġ ãħĭãħĭãħĭãħĭãħĭãħĭãħĭãħĭ
íķ´ ë³´
ìĬ¤ ëĬĶ
ìĺ¤ ê¸Ģ
Ġì§Ģ ëĤľ
ìĦ± ë£¡
íķĺëĭ¤ ëĬĶ
ìĨĮ ëħĦ
ë¦¬ë ĵ¤
íĹ Į
ìĤ¬ë ĵ¤
Ġ d
ĠìĿ´ ìĺģíĻĶëĬĶ
Ġê·¸ ìĿĺ
Ġëĭ¤ ê°Ģ
ĠìłĦ ìĦ¤
Ġê°Ĳëıħ ëĭĺ
íĿ ł
ìĸ¸ ìłľ
Ġì¦ Ŀ
Ġê²½ ì°°
Ġë¶Ģì¡± íķľ
Ġì§Ī ì§Ī
Ġì²ľ ìŀ¬
ĠíĻĺ ìĥģ
ëĭĿ íĥĢìŀĦ
ĠìĻľìĿ´ ë¦¬
ìĸ´ë¦´ ëķĮ
¹ Ľ
ëĭ¤ íģĲ
ĠëĤĺ ë¨¸
Ġíĸ Īëįĺ
ëª¨ ìĬµ
Ġê·¸ëŁ° ëį°
ìĬ¤ëŁ½ ê²Į
8 0
ìĭľ ì¼ľ
Ġìĸ »
ĠìĦ± ê³µ
Ġë§ĪìĿĮ ìĿĦ
ĠìĿ¸ìĥģ ê¹Ĭ
t v
ľ ĺ
ë¦¬ ëĭ¤
Ġì§ ĵ
ìĤ ¶
íı °
Ġë¹Ħ ì¶Ķ
ìĭ¬ íŀĪ
Ġë¯¸ ìĨĮ
ĠìĹŃ ëĮĢ
Ġì¢ĭìķĺ ëĬĶëį°
ìĽĢ ìĿĦ
ĠíĸĪ ì§Ģë§Į
ĠìĿ´ìķ¼ê¸° ê°Ģ
êµ¬ë ł¤
Ġë ŀ
ìĦľ ëĬĶ
ìĸ´ ëĿ¼
Ġìĸ´ ëłµ
ìłĢ ëŁŃ
ê³Ħ ìĨį
ĠìĻĢ ëĭ¿
Ġ :
íķĺ ìĦ¸ìļĶ
ê¸° ë¡ľ
ë¦¬ ìĹĲ
ìķĦ ëĿ¼
ëĦ¤ ìĹ¬
ìĹĪ ìĿĦ
Ġë¶Ģ ëª¨
ëĵ± íķĻìĥĿ
ĠìĹ¬ë Ł¬
Ġëĵł ëĭ¤
í ĺģ
ëıĦ ëĬĶ
ëĤĺ ê°Ģ
ìĬ Ī
ìķĦ ê°Ģ
ê¹ Ķ
Ġíķľ ê³Ħ
Ġëĵľ ëĬĶ
ë¹Ħ ëĶĶìĺ¤
Ġì¡° ìĹ°
ĠëĤĺìĺ¤ ê³ł
Ġëªħìŀĳ ìĿ´ëĭ¤
ĠìķĦëĭĮ ëį°
ĠíĹĪ ìĪł
ìĻ¸ ë¡ľ
ĠíĶĦë¡ľ ê·¸ëŀ¨
Ĳ ë§ģ
ìĿ´ ìľł
ìķĺ ìĬµëĭĪëĭ¤
Ġíķ´ ì¤Ģ
Ġìĭ¤ íĮ¨
ĠëĦĺ ìĸ´
Ġì²ĺìĿĮ ìĿ´ëĭ¤
ë°° ê²½
© °
ĠìĺģíĻĶ ì§Ģë§Į
ëĮĢ ê°Ģ
Ġê°Ļ ìĿĮ
Ġì¶ ¤
Ġë© Ģ
ĠëıĪ ìĿ´
ì§ĢìķĬ ëĬĶ
ì¡´ ëĤĺ
Ġ ;;
ë¦¬ ëıĦ
ìĹ¬ ì£¼ìĿ¸ê³µ
ĠíĿ ł
ë¦¬ë ©´
Ġë§ŀ ëĬĶ
ê°Ī ìĪĺë¡Ŀ
ê·¹ìŀ¥ ìĹĲìĦľ
Ġo st
Ġë Ĵ·
ìĿ´ ìĿĺ
ëĤĺ ìĺ´
ìĦľ ìķ¼
ëģ Ī
ĠëĵľëĿ¼ë§Ī ê°Ģ
ëªħ ìĿ´
ĠëıĻ íĻĶ
ìķĦì§ģ ëıĦ
Ħ ë¦¬íĭ°
ìĿ´ ìĬ¤
ìķĦ ëĤĺ
ìŀ¬ë¯¸ ìĹĨìĿĮ
ĠìĽĲ ëŀĺ
Ġãħİãħİ ãħİ
Ġê³ ³
Ġëª© ìĨĮë¦¬
( ?)
1 4
ĠìķĦ ëĬĶ
ë§Ĳ ëıĦ
ìĹ° ê±¸
Ġì§Ģë£¨ íķ´
ë³´ê³ł ìĭ¶
ĠìĤ¬ëŀĳ ìĿ´
ë°ľ ìĿ´
íĽĦ ë°ĺ
íķĺê¸° ë§Į
ĠìĽĲìŀĳ ìĿĦ
Ġì²Ń ì¶ĺ
ëŁŃ ìłĢëŁŃ
¥ ĺ
ĠìĦ ¬
ĠìŀĲ ìľł
Ġë³´ê³ł ìĭ¶ìĿĢ
Ġíķ´ íĶ¼
Ġê°Ĳ íĥĦ
ĠíĶ Į
ĠëĤľ ëĭ¤
Ġê²Į ìŀĦ
Ġê°Ħ ë§ĮìĹĲ
í ĳ¸
ĠìĿ´ëŁ° ê±°
Ġë¯¸ ëŀĺ
Ġìŀ¬ë¯¸ìĹĨ ê³ł
ëŁ½ ëĭ¤
ìĭĿ ìľ¼ë¡ľ
Ġëľ ¨
ĠëĵľëĿ¼ë§Īë ¥¼
ëıĦ ê°Ģ
Ġë§ ĪëĿ¼
ë§Į ëĵľëĬĶ
ìĺ¤ ë¹ł
ĠìĬ¤ ì¼Ģ
ìĦ± ìĿĢ
ĠìĹ°ê¸° ìĹĲ
ĠìĽ Į
Ġíķ´ ì£¼
íħ Ķ
ê´Ģ ê°Ŀ
ì¶Ķ ìĸµ
ëĶ° ëľ»
Ġìł ¤
ëĵ¤ ë§Į
Ġë©Ķ ìĭľ
Ġìķŀ ìľ¼ë¡ľ
Ġì·¨ íĸ¥
ëļ ±
ë ĩĮ
Ġë¶ Ļ
íĴ Ģ
ìĺĢ ìĸ´ìļĶ
ë©´ìĦľ ëıĦ
ĠìĿ¼ ìĸ´
Ġê³ł ë¯¼
Ġë°Ķ ëĢ
Ġì²ĺìĿĮ ë¶ĢíĦ°
ìĥĿê°ģ ë³´ëĭ¤
ĠëĪĪ ìĿĦ
Ġëĸ¨ìĸ´ ì§ĢëĬĶ
Ġë¶Īë ¥ľ
Ġí į¼
ĠìĿ ĳ
ĠìĿ´ íķĺ
ê±° ëĥĲ
ìĹĨ ìĸ´ìĦľ
ì¦ Ĳ
Ġìŀĺ ë§Įëĵł
Ġê·Ģ ìĭł
ĠìĨĮìŀ¬ë ¥¼
Ġ D
Ġë³´ ìĿ´ëĬĶ
ë° ¥
ìĭľ ì²Ń
ê·¸ ëłĩ
ĠìłĦ ë¬¸
ë¬´ ìĦŃ
Ġê°Ĳ ìłķìĿ´
Ġëħ ¼
ĠìĿ´ìľł ê°Ģ
Ġë ļ
ë§ ¥
ìĥ ¤
ìĻĢ ìĦľ
íĸĪ ìĿĦ
ĠëĬ Ļ
ĠëĤ¨ ëĬĶëĭ¤
ĠìĬ¤íĨłë¦¬ ìĻĢ
Ġë¯¸ ìķĪ
ĠìķĪë ´¤
Ġê³µ íı¬ë
Ġë³´ëĬĶ ê²Į
ĠìķĦê¹Į ìĽĮ
ĠëĪĪ ìĿ´
Ġì°į ìĿĢ
ê²Ł ëĭ¤
9 0
ë© ĶìĿ´
ĠìķĦ ë§Ī
Ġìĸ´ ì°Į
Ġëģ Ĭ
ë¹Ħ ê°Ģ
ĠëĮĢíķľ ë¯¼êµŃ
ĠëĪĦ êµ°
Ġë ¡
ê°Ģ ìŀ¥
ëĵ¤ ê³ł
ìķĦ ë²Ħì§Ģ
ĠëĤĺ ìĦľ
ëł¤ ëĭ¤
ĠìĻľ ìĿ´ëłĩê²Į
ĠìĤ¬ëŀĮ ìĿĦ
ĠíķĺëĤĺ íķĺëĤĺ
Ġê·¸ëŁ° ê°Ģ
ëŃĲ ì§Ģ
ĠìŀĪëĭ¤ ë©´
Ġìľłì¹ĺ íķľ
ìŀ¬ë¯¸ìŀĪ ìĸ´ìļĶ
ĠìĹ¬ë Ł¬ë
ĠíĨµ íķ´
¬ë ¡ľ
³´ ëĭ¤
ĠìĿ´ ëŀĺ
ìľ¼ ë¡ł
Ġê¸ Ī
ì¤ĳ êµŃ
ìłĢ ëĬĶ
Ġë§¤ëł¥ ìĿ´
ëĳ ¥
Ġë¦¬ë ©ĶìĿ´íģ¬
Ġê°ĲìĤ¬ íķ©ëĭĪëĭ¤
Ġ +
ëĭ¤ ì§Ģ
ëĬĶ ê°Ģ
ìĺģíĻĶ ëĿ¼
ìĺģíĻĶ ëĿ¼ê³ł
Ġê°Ģ ìĦľ
ìĹ°ê¸° ëł¥
ĠíĻĶ ê°Ģ
Ġì¤Ħ ê±°ë¦¬
Ġìłģ ëĭ¹
ĠëĤĺìĻĶ ìľ¼ë©´
ĠëŁ¬ë ¸Į
1 1
ĠìĺģíĻĶ ëĥĲ
ëĦ¤ ìĿ´ë²Ħ
Ġë´¤ ëĭ¤ê°Ģ
ìĹ¬ ê¸°
ĠìķĮ ìķĦ
ĠìĿ´ëŁ° ìĺģíĻĶ
Ġìŀ¬ë¯¸ìŀĪ ê³ł
Ġëħ ¹
ì§± ì§±
ê·¸ëŀĺ ìĦľ
Ġëıħ ë¦½
ĠìĬ¤íĨł ë¦¬ë¥¼
ìĸ´ëł¸ ìĿĦëķĮ
ë³į ê²Į
ĠìĹ¬ìłĦ íŀĪ
ìİ Ħ
ì ¨
íķľ ì§Ģ
ëĿ¼ ìĬ¤
ëŀ Ĳëĭ¤
Ġìĺ ¬ëĿ¼
ìĻĢ ë¥´
Ġíķ µ
ĠìłĢ ëĬĶ
ĠìĹŃ íķł
ìľĦ íķ´
ê²° êµŃ
ĠìķĪëĲĺ ê³ł
Ġ8 0
íļ¨ ê³¼
ĠìķĪë³ ¸
µ Ŀ
ì ĵ´
ìĿ´ íĦ°
ëĭĪ ìķĦ
Ġë³´ ëŁ¬
íķł ê¹Į
Ġëį ĺ
ĠëĤ´ìļ© ìĿĦ
Ġìļ° ìļ¸
Ġìĭľê°Ħ ëĤŃë¹Ħ
Ġì²ĺìĿĮ ìľ¼ë¡ľ
Ġíķľ íİ¸
ĠìĥĿê°ģ íķ©ëĭĪëĭ¤
ìĿ´ëĿ¼ ìĦľ
ĠëģĿ ëĤĺê³ł
ìĹŃ ìĤ¬
íķľëĭ¤ ë©´
ìĤ´ ëĭ¤
ë¨¹ ê³ł
ì¾Į íķľ
ìķĦëĭ ĪëĿ¼
ĠìŀĲìĭł ìĿĺ
Ġì²ł íķĻ
b b
ê¸° ë¶Ħ
Ġìłķ ì¹ĺ
Ġìĭľ ìĦł
Ġë´¤ ìĹĪëĬĶëį°
Ġê°Ģ ì§Ħ
ìĿ¼ ëĭ¨
Ġìŀ¬ë°Į ìĸ´
ĠìłĦ ëĭ¬
ĠìķĪ íķĺê³ł
ë¥¸ ëĭ¤
Ġë³´ê¸° ìĹĶ
Ġìľłì¹ĺ íķĺê³ł
ì§ĢìķĬ ìĿĢ
íĳľ íĺĦ
ë©ĺ íĦ°
ìĹ¬ìļ´ ìĿ´
íī ģ
a n
ĵ ¨
Ġë ¥ĺ
ìĿ´ ìŀĲ
ëł ī
ìĹĪ ìĸ´
ì£¼ ìĸ¼
íĨ ¤
ê±¸ ë¡ľ
ìĽĲ ìĿ´
ìĶ¨ ê°Ģ
ĠëĪĦ êµ¬
Ġê´ľ íŀĪ
* *
1 00
3 0
o u
į ëĭĪëĭ¤
ìĿ´ ë¥¼
íķľ ë§ĪëĶĶë¡ľ
ë² ¤
ĠëĦĪë¬´ ëĦĪë¬´
ë¯¸ ì¹ľ
Ġìŀĺ ë´¤ìĬµëĭĪëĭ¤
ëłĪ ìĬ¤
ëŃ ĺ
Ġë³Ħ ë£¨
Ġì§ľì¦Ŀ ëĤĺ
ĠíĴ Ģ
ĠëĮĢëĭ¨ íķĺëĭ¤
ĠìķĪëĲ ¨
Ġc g
ëĤĺ ìĿĺ
ì£¼ ìĹ°
ëĤ´ ìĿ¸ìĥĿ
ìĹĲìĦľ ìĿĺ
ĠëĮĢ ì¶©
ëĶĶ ìĸ´
íĬ¸ ê°Ģ
ĠëĵľëĿ¼ë§Ī ëĬĶ
ĠëĲĺ ìĹĪëĭ¤
ĠìĹ¬ìŀĲ ê°Ģ
ëĤ´ìļ© ìĿĢ
ê¶ ģ
íĹĪ ìłĳ
1 5
ģ ìĵ¸
íķĺ ëł¤ëĬĶ
ĠìĹĨ ì§Ģë§Į
Ġì° ¬
Ġì¤ĳ ë°ĺ
ì¶ľ ìĹ°
ëĨ ¨
Ġìŀ¬ë¯¸ìĹĨ ìĸ´
ĠìłĦê¸° ìĦ¸ê°Ģ
ê¸° ìĿĺ
ìĭľ ìķĦ
ê¹Į ì§Ħ
êµ¬ íķĺê³ł
Ġëª¨ ìŀĲ
ìĭł ìĦł
ì¡° ê¸Ī
Ġë°Ķ ê¿
Ġê¼ ´
ì´ ĪëĶ©
íıī ë¡łê°Ģ
ĠíĻ© ëĭ¹
íĿ¥ ë¯¸
ì§ Īëģ
ãħ ģ
ĠìķĦ ìłĢìĶ¨
ĠëĤĺ ìĹĲê²Į
ìłĦ íĺĢ
Ġìŀ¬ë¯¸ ë¥¼
íİ¸ ë³´ëĭ¤
ë²Ħ ëł¸ëĭ¤
ê» Ħ
ĠìĺĪ ìģľ
ì© Ķ
Ġì§Ģê¸Ī ê¹Įì§Ģ
ìĽĥ ê¸°
ìŀ Ĭ
Ġë³´ ìĭľê¸¸
ëĮĢ ëĬĶ
Ġëĭ¤ ë§Į
ìŀĪ ìĸ´
Ġìĥ Īë¡
Ġë³´ê³ł ëĤĺìĦľ
ĠìĤ¬ ëĬĶ
ê²° ë§ĲìĿ´
ĠíĿ¥ë¯¸ ë¡Ń
Ġê·¸ ëŁ¼
ìĭľ ëĤĺë¦¬ìĺ¤
ĠìŀĪ ìĬµëĭĪëĭ¤
ì° Ŀ
Ġìĺģ íĻĺ
Ġìµľìķħ ìĿ´ëĭ¤
Ġëª°ìŀħ ìĿ´
ĠìĹ°ê¸°ëł¥ ìĿ´
¬ë ł
!! !!!
ĠëĤĺ ë¥¼
ĠëĤĺ íĥĢ
ìĪĺ ëĬĶ
ĠëĦĪë¬´ ëĤĺëıĦ
ëĵľ ëĿ¼
Ġìŀ¬ë°Į ìĹĪìĸ´ìļĶ
ĠìĹ¬ ìĦ±
ëįĶ ë§Į
ë§¤ ëł¥
Ġê¸°ë¶Ħ ìĿ´
Ġìĸ´ìĥī íķľ
ì§Ģ ì»¬
Ġê·¸ ëĵ¤ìĿĺ
ìĹĪ ì§Ģ
ë² ¼
ĠìĹ°ê¸° ìĻĢ
ĠìĿ¼ ëĭ¨
ëĲĺ ì§Ģ
ì¦Ī ëĭĪ
ĠíķĦìļĶ ìĹĨëĬĶ
Ġìłľìŀĳ ì§Ħ
Ġê·ĢìĹ¬ ìļ´
ĠíķĻ êµĲ
ĠìłĦì²´ ìłģìľ¼ë¡ľ
Ġì§ ł
Ġëĭ¤ ìĨĮ
ëŀĺ ê¸°
ë¬´ ìĦľ
ìĤ¬ëŀĮ ìĿĢ
ĠìĻ¸ êµŃ
ìŀĶìŀĶ íķľ
ê°Ģ ëĬ¥
ë³´ ìĿ´
Ġë° Ŀ
ë´ ĩ
íĸĪ ëĭ¤ëĬĶ
ê°Ļ ìĿĮ
Ġë§Įëĵ¤ìĸ´ ì§Ħ
ĠìĪĺì¤Ģ ìĿ´
Ġì© Ķ
Ġê¾ ¸
ĠìĺĪë »
ìĿ´ ê²ĥëıĦ
ìĸ´ ì§Ħ
ë¡ľ ëĬĶ
ë¡ľ ë§¨
ìķĦ ëĨĶ
ê±° ìļ´
Ġëĭ¤ìĭľ ë´ĲëıĦ
ìķĪë ³´
Ġíı¬ ìŀ¥
ëıĮ ìķĦ
ĳ ¹
ĠìĿ´ ìłł
ìłĲ ì£¼ëĬĶ
ê±° ë¦¬ëĬĶ
ë§Ī ìłĢ
ìĥģ ìĿ´
Ġëı ¼
Ġëį ľ
Ġê¸° ë³¸
ĠìĪĺ ëıĦ
ĠìłĦ ìĹĲ
Ġê°ľ íĮĲ
Ġìļ° ìĹ°íŀĪ
Ġê¼ ½
Ġë³´ì§Ģ ë§Ī
Ġë³´ì§Ģ ë§ĪìĦ¸ìļĶ
Ġë¦¬ë ·°
ĠíĿĲ ë¦Ħ
µĿ ìĺ¤
ë ¢
ë¡ ¯
ìĿ¸ ëıĦ
ìĭľ íĤ¨
ĠìŀĪ ëĤĺ
ê³µ ê°Ĳ
ĠìĤ¬ ìĿ´
ĠìĤ¬ ê·¹
ĠìłĢ ëłĩê²Į
ì½Ķ ë¯¹
Ġìĭ¬ ìĭ¬
ìķĦê¹Į ìļ´
Ġëª¸ ë§¤
ĠìĨĮìŀ¬ë ¡ľ
ë§ ĺ
ì§Ģ ìĿĺ
Ġìŀ ĩ
Ġì¢ĭ ìĿĦ
ìľ¼ë¡ľ ìĦľ
Ġìĸ´ ìĿ´ê°Ģ
ĠëŃ ī
ëĵ¯ ìĿ´
Ġìĺ¤ ëĿ½
Ġìľł ìĿ¼
ëĦĪë¬´ ëĤĺ
ĠìłĢ ëıĦ
ĠíĹ Ľ
ê´Ģ ê³Ħ
ĠìķĦëĭĮ ëĵ¯
ìĽł ìĿĮ
Ġë°ĺìłĦ ìĿ´
Ġê·¸ëłĩ ëĭ¤
ĠíĹĪìłĳ íķľ
ĠìķĦë¦Ħëĭµ ê³ł
? !
ìĿ´ ë¦¬
ë§Į ìłĲ
Ġë° ¤
ëĮĢ ìĿĺ
Ġíķĺ ëĦ¤ìļĶ
ëª ¸
Ġìĺ¤ ê·¸ëĿ¼
Ġë¶Ģ íĦ°
ĠëĲĺ ê³ł
Ġê³ł ìĥĿ
ëĳĲ ê³ł
¬ë¦ Ħ
ìķĪë Ĳ
ëĶ° ëĿ¼
Ġíı¬ ê¸°
Ġì± Ļ
Ġê³µê°Ĳ ìĿ´
Ġì¹´ ë©ĶëĿ¼
Ġt v
Ġì§Ħë¶Ģ íķľ
ìĺ¬ë ķĮ
Īë ķĮ
ë¡ ±
¬ëŀ Ģ
Ġíķľ ë§ĪëĶĶë¡ľ
Ġë´¤ ìľ¼ë©´
Ġê°Ģ ëģĶ
Ġ1 5
Ġê°Ļ ìķĦ
ĠëĶ ´
íĤ ¬ë§ģíĥĢìŀĦìļ©
ĠíĻ ľ
Ġíĥ Ī
ĠëĳĲ ë²Ī
Ġë§¤ëł¥ ìłģìĿ¸
êµ¬ë ¥¼
ĠìĨĮë¦Ħ ëıĭ
Ġìļ© ìĦľ
Ġê´´ ë¬¼
íķľ ê²ĥ
ĠìĿ´ ê¸°
íķ´ ì¤Ģ
Ġë³´ ìĭľ
ë² Īë³´
ĠìĽ Ķ
Ġë¶Ģ ëģĦ
ìĨį ìĹĲìĦľ
ëĬĲ ëĿ¼
ë¥ĺ ìĿĺ
Ġì§ľì¦Ŀ ëĤĺëĬĶ
ĠìĿ´ìľł ëĬĶ
Ġìĸ´ìĿ´ ìĹĨëĬĶ
ĠëĪĪë ¹Ľ
ë¢ °
Ġë§ ¡
ëĦ £
ĠìĹĨ ëĤĺ
ë£ ¬
ìĦ± ìĹĲ
ĠìĨĮ ëħĢ
ë´¤ ìĿĮ
ìŀ¬ë°Į ëĬĶëį°
Ġíı Ĳ
ë°°ìļ° ê°Ģ
ê¼ ½
ì§Ģë£¨ íķ¨
Ġì¶Ķì²ľ íķ©ëĭĪëĭ¤
ê´ľì°® ìĿĢ
ê²¹ ëĭ¤
ĠO ST
ìĿ´ ëŀĺ
ìķĦ ëĭĺ
ê¹Įì§Ģ ëĬĶ
ì§ĢìķĬ ê³ł
ê¾ ¼
íķĺìĭľ ëĬĶ
ĠìĬ¬íĶĦ ëĭ¤
ĠìłĬ ìĿĢ
ìŀ Īëįĺ
ãħ Ī
ëį ľ
ìĺ ¹
Ġë° ¥
ìŀĲ ëĭ¨
ĠëģĿ ëĤĺëĬĶ
ìĹ¬ë °°ìļ°
ëĪĦ ê°Ģ
ì¤ĺ ìĦľ
ĠíĿ¬ ìĥĿ
ĠìĻł ì§Ģ
ëıĦ ìĹĨê³ł
ìŀĲ ê³ł
Ġíķĺ ë£¨
ìĻĢ ëĬĶ
ìĭł ìĿĺ
íķĺëĭ¤ ê°Ģ
ĠìĥĿê°ģ ëĤĺëĬĶ
ë²Ħ ëł¸
Ġì¹ ¼
ĠìĤ´ ì§Ŀ
ĠíĻķ ìĭ¤íŀĪ
ì¤ĳê°Ħ ìĹĲ
ĠìķĦë¦Ħëĭµ ëĭ¤
ĠìĪľìĪĺ íķľ
ì§Ģ ë§Ī
Ġë³´ ìĿ´
ìĺģíĻĶ ìŀĦ
ë³´ ìĹ¬
ìŀ¥ ë¥´
ìĤ¬ ìĭ¤
Ġë§Ī ì¹ĺ
ëħĦ ìłĦìĹĲ
ìķĪ ìĹĲ
Ġë§Įëĵ¤ ê³ł
Ġìĥģ ì²ĺ
Ġì¢ĭìķĺ ëįĺ
ë³Ħ ìłĲ
Ġíİ ĳ
Ġíĳľ ìłķ
Ġê±´ ì§Ģ
Ġë´Ĳìķ¼ íķł
ĠìĶ ¬
ê°Ģ ê°Ģ
ê¸° ëįķ
ìķĦ ìĺ¤
ĠìŀĪ ì§Ģ
íŀĪ ëĬĶ
Ġë§Ĳ ìĿĦ
Ġìĭ¶ ìĸ´
Ġì¹ ¨
ë°°ìļ° ëĵ¤ìĿ´
Ġíıī ìĥĿ
ĠíķĦìļĶ ìĹĨëĭ¤
ìŀ¥ë©´ ìĿ´
ĠëĨĢ ëŀį
Ġëĸł ëĤĺ
ĠìĦ¹ ìĭľ
° ©
ĠìĺģíĻĶ ê´Ģ
ëĵ¤ ìĹĲ
Ġê² ©
ĠìŀĪ ê²Į
ëįĺ ì§Ģ
Ġë¹Ħ ê·¹
Ġê°ĲëıĻ ìłģ
Ġìŀ¬ë¯¸ìĹĨ ëĦ¤
ìĺĪ ìĪł
ìĺĪ ìłĦìĹĲ
Ġì¡¸ ëĿ¼
ëĭ¤ìĭľ ë´ĲëıĦ
Ġìĭ¸ ìĿ´ì½Ķ
Ġìĭ« ëĭ¤
ê²¼ ëĭ¤
Ġìŀ¼ìŀĪ ê²Į
Ġíģ¬ ê²Į
ĠìĿ´ ëŁ¬
Ġì§ Ĳ
ìĺģíĻĶ ë³´ëĭ¤
ĠëĤĺ ìĿĢ
Ġìĺ Ģ
Ġìĺ¤ ëŀľ
ĠíıīìłĲ ìĹĲ
Ġì§Ģë£¨ íķĺì§Ģ
ëģ¼ ë¦¬
ĠìĹŃìĭľ ëĤĺ
Ġìŀ¬ë°ĭ ê²Į
1 9
Ġì º
ìĿ´ íĽĦ
ãħ ı
ëł ģ
íķ´ ì§Ħ
ì² «
ìĪĺ ìĹĨëĬĶ
íĬ¸ ì½¤
ĠìĤ¬ ê¸°
ìķł ëĵ¤ìĿ´
ìĦ¤ ìłķ
Ġë¶Ħ ëħ¸
Ġê¸´ ìŀ¥
ì²ĺìĿĮ ë¶ĢíĦ°
ìĽĲìŀĳ ìĿĦ
ĠìĤ° ë§Į
Ġíļ ¨
ìĨĮìŀ¬ ëĬĶ
Ġê¹Ķ ëģĶ
ëĬĶ ê±´
ĠìĺģíĻĶ ë³´ê³ł
ìĺģíĻĶ ê´ĢìĹĲìĦľ
Ġê·¸ ê²ĥ
Ġê·¸ ë¦°
ìŀĲ ìĹ°
ìĪĺ ìĿĺ
Ġëĵľ ëŁ¬
ëł¥ ìĿĦ
ĠíĽĦ ìĨį
ĠíķĦìļĶ íķľ
ĠëĿ¼ ê³ł
ĠíĻį ë³´
Ġê·ĢìĹ½ ê³ł
o n
ĥ ¥
ëĤ ļ
ìĭľ ìĹĲ
ê°Ħ ìĿĺ
êµ¬ ëĭĪ
ì¤ĳ ìĿĺ
ĠìķĬ ê²Į
Ġêµ ¬ë
Ġìĺ¤ ë²Ħ
Ġìķł ëĵ¤ìĿ´
ìŀĶ ìĿ¸
ê°Ĳëıħ ëĭĺ
ìĿ¸ê°Ģ ìļĶ
Ġíĺķ íİ¸
ĠìĨĮë¦Ħ ëģ¼
Ġê¹Į ì§Ģ
a d
Ġë ±
Ġë ¿
ìĿ´ ë©°
íķĺ ëł¤
ìĦ ¯
ĠìĿ´ ë£¨
ìĬ¤ íĨł
ĠìĹ° ìķł
ëªħ ìĿĺ
Ġìĭľê°Ħ ìĿĦ
ìĬ¤íĨłë¦¬ ëĬĶ
íķĺê¸° ëıĦ
ëįĶëĿ¼ êµ¬ìļĶ
ëıħ êµĲ
Ġì£Ħ ëĭ¤
ĠíĻĶëł¤ íķľ
ëĭ¤ ìĿĮ
Ġìŀ ¤
ìĿĦ ê±°
Ġê·¸ ë¦½
ë° ĳìĹĲ
Ġíķĺ ë©´ìĦľ
ĠìĹ° ìĺĪ
ìĭ¤ íĻĶ
Ġë³´ê³ł ìĭ¶ëĭ¤
Ġë°ĺ ìĦ±
ĠìĿĺ ë¬¸
Ġëª° ëĿ¼ëıĦ
ĠíĬ¹ ë³Ħ
Ġì£¼ìĿ¸ê³µ ìĿĺ
ë¶Ī ê°Ģ
Ġãħħ ãħĤ
r e
Ġìĭ Ń
Ġê·¸ ì§Ģ
ìĭĿ ìĿĦ
ĠíĺĦ ìŀ¬
íĶ¼ ìĨĮ
ì£¼ìĿ¸ê³µ ìĿ´
ìŀĲì²´ ê°Ģ
Ġ w
ìĿ´ ëĭĪ
ê² Ģ
ìķĦ ëĭĪëĭ¤
Ġìłķ ìĦľ
ĠìŀĪ ìĸ´ìļĶ
ê·¸ ìĿ¸
Ġì§Ħ ìłķ
Ġê°Ģ ê¹Į
ĠìĬ¤ íĬ¸
ë¶Ģ ì¡±
Ġìŀ¬ë°Į ëĬĶëį°
Ġì¶ ķ
Ġì¡° íıŃ
ĠìĤ¬ëŀĳ ìĹĲ
Ġë¶Ī êµ¬íķĺê³ł
ì¹ľ ëĭ¤
ĠìĦł ìĥĿ
Ġê³¼ ìĹ°
ĠíĢ Ħë¦¬íĭ°
íķĺ ìĭł
ê°Ģ ëĿ½
ìĹĲ ë§Į
Ġëĭ ¬ëĿ¼
Ġìĭľ ìĽĲ
Ġë¬´ ìĭľ
ĠìĽ ¬
Ġë¯¸ ìĬ¤
ĠìĤ¬ëŀĳ íķĺëĬĶ
Ġì¢ĭìķĦ ìĦľ
Ġë¶Ħ ëĵ¤
Ġë°Ľ ìķĦ
Ġìķħ ìĹŃ
ì¤ĺ ìķ¼
Ġê¹¨ ëĭ«
ê°ĢìĬ´ ìĿ´
Ġë¸Ķ ëŀĻ
ë¿ Ķ
Ġìī½ ê²Į
Ġíķ´íĶ¼ ìĹĶëĶ©
ë§Ī ìĬ¤
ĠëĤĺ ìĺ´
ì§Ħ ë¶Ģ
ìĤ¬ ìĿ´
Ġëģ Ħ
Ġíı ¬ë
ë§ĲìĿ´ íķĦìļĶ
êµ¬ë ¡ľ
Ġê²ģ ëĤĺ
ë§ Ļ
Ġê°ľ ìĿ¸
íİ¸ ìĹĲ
ë¦¬ë Ħ¤
ĠìĹ°ì¶ľ ëıĦ
ë¸ Ĳ
ĠìĦ¤ ëłĪ
ĠëĤ® ìķĦìĦľ
ĠìĹ´ ìĭ¬íŀĪ
Ġëĸł ëĤĺìĦľ
ĠOOO ê¸°
Ġê·¸ ê±¸
ìłĲ ì£¼
Ġìĸ´ ëł¸
Ġìŀ¬ë°Į ìĹĪëĬĶëį°
Ġìŀ¬ë°Į ìĹĪìĿĮ
ĠìķĬ ìķĦ
ĠëĤ¨ ìĿĦ
ĠìĿ´ëŁ° ê±¸
Ġìķ¡ìħĺ ìĿ´
ìł¸ ìļĶ
Ġê¸°ëĮĢ ë¥¼
íķĻ ëħĦ
ĠëĳĲ ê³ł
ĠíĺĦìĭ¤ ìĿĦ
ê¿ Ī
Ġëľ »
ìķĦê¹Į ìĽĮ
Ġëĳĺ ëĭ¤
Ġìľłì¾Į íķľ
ìĸ´ëĸ ¤
¥´ ëħ¸
Ġêµ³ ìĿ´
Ġì ħ
ìĿ´ ë¯¸
ì§Ģ ë§ĪëĿ¼
íķĺ ìħ¨
ĠìĿ´ ê²ĥëıĦ
ĠìĿ´ ìģľ
ìĿ¸ ëĵ¤
ìĭľ ëĤĺ
ëŀ µ
Ġì° ¡
ìħ ī
Ġëª» íĸĪëĭ¤
ĠìŀĲ ë§ī
ë´¤ ëįĺ
íĿ Ķ
Ġê²° ë¡ł
ĠëĬĲëĤ Ģ
Ġë°ľ ìłĦ
ĠëĬĲëĤĮ ìĿĦ
ì» ¨
Ġãħĭãħĭãħĭãħĭ ãħĭ
Ġìį ©
C G
í ĵ¨
íķľ ëĭ¤ê³ł
ĠìĿ´ ë»Ĳ
ëł ·
... ?
ĠìķĦ ìĺ¤
ĠëĤĺ ê°Ģ
ìļ° ê³ł
Ġìµľ ê·¼
Ġë¬´ ì§Ģ
ë¬´ ë¹Ħ
Ġê°ĲëıĻ ìłģìĿ´ê³ł
Ġê±° ì§ĵ
ê²¨ ìļ´
ĠìĿ´íķ´ íķł
ìŀ¡ íķľ
ë¶Ī ìĸ´
ëįĶëĿ¼ ëıĦ
Ġê²°ë§Ĳ ëıĦ
ĠìĺģíĻĶìĹĲ ìļĶ
ëŀį ëĭĪëĭ¤
ĠìĬ¤ì¼Ģ ìĿ¼
ê°Ģ ì§Ģê³ł
ëĤ «
ëĤ ¼
ìķĦ ìī½
Ġìĭ ¬ë¦¬
Ġê·¸ ëŀ¬
ìŀĳ ìĿ´
ì° ®
íĸĪ ëĬĶì§Ģ
ìĭł ìĿĢ
ê²ł ìĿĮ
Ġë§Ī ìĦ¸ìļĶ
ĠëĲĺ ì§Ģ
Ġê°Ĳ ëªħ
íĮĲ ìĹĲ
ĠëıĻ ìĥĿ
Ġë³Ħë¡ľ ëĭ¤
ìĤ¬ëŀĮ ëĵ¤ìĿ´
ì§Ģë£¨ íķĺëĭ¤
ĠíĴ ĭ
Ġê¹Ĭ ìĿ´
ì¤Į ë§Ī
i s
íķĺ ëĿ¼
íķĺ ëł¤ê³ł
ĠìĹ ĳ
ĠìĿ´ ìĺģíĻĶê°Ģ
ë§Į ëĵľ
ìĹĪ ëĬĶì§Ģ
ê²ł ëĦ¤ìļĶ
Ġë¹Ħ ì£¼ìĸ¼
ëĭ¨ ìĪľ
Ġë°°ìļ° ìĿĺ
Ġì¢ĭìķĦ íķł
íıīìłĲ ìĹĲ
¬ë¦ ¼
Ġìĭł ê²½
ĠëķĮ ë¬¸
Ġë³¼ë§Į íķ¨
ìĵ°ëłĪê¸° ìĺģíĻĶ
ì¢ĭìĿĢ ìĺģíĻĶ
ĠìĬ¬íĶĦ ê³ł
ë ±
Ġì ĩ¼
Ġëĭ ¬ë¦¬
Ġìĥ ¤
Ġê² ĮìĿ´
ĠìŀĪ ìĸ´ìķ¼
ê³¼ ìĿĺ
Ġíķľ ëį°
Ġì¤ Į
íİ¸ ëıĦ
Ġë§İ ëĭ¤
ĠìłĢ ìĺĪìĤ°
ë´Ĳ ìļĶ
ì¢ĭìķĦ íķĺëĬĶ
Ġíıīë²Ķ íķľ
. """
¦ ê²Į
ìĿ´ ìħĺ
ìķ ¤
ì§Ģ ëĤĺ
Ġìŀ ĪëĦ¤ìļĶ
Ġí ĳ¹
ĠìĹĨ ëĬĶëį°
ìķĺ ê³ł
ì¤ĳ ë°ĺ
ĠëįĶ ìĿ´ìĥģ
íķĺëĭ¤ ëĭĪ
ĠìĽ Ģ
ĠëĤ¨ ì£¼
ĠìĿ¼ ìĥģ
ĠëĲĺ ê²Į
ì²ĺ êµ¬ëĭĪ
Ġíŀ Ĳë§ģ
00 7
ëŃĲ ëĥĲ
Ġê·¸ëłĩ ëĭ¤ê³ł
Ġìķħ ëĭ¹
Ġìī ¬
ë§ĪìĿĮ ìĿ´
Ġ <
Ġí ĩ´
ĠìĹĨ ëĭ¤ëĬĶ
ĠëĤĺ ì¤ĳìĹĲ
íĸ ĪëĦ¤
ĠìĹ° ê²°
Ġë³¼ ìĪĺë¡Ŀ
Ġë³¼ ëķĮë§Īëĭ¤
ê³Ħ ìĿĺ
Ġìŀ¬ë¯¸ìŀĪ ìĿĮ
Ġìĭ¶ ëĦ¤ìļĶ
íĽ Įë¥Ń
ë©ĭ ì§Ħ
ìķĦê¹Į ìĽĢ
ëĤĺìĻĢ ìĦľ
B ê¸ī
a t
ŀ ĳ
Ġë º
ëĬĶ ìĺģíĻĶ
¬ë °
Ġì§ ķ
ìľ¼ë¡ľ ìį¨
íķ¨ ìĹĲ
ìĤ¬ ìĿĺ
ĠìłĦ íĺķìłģìĿ¸
Ġë§Ĳ íķł
ĠëĿ¼ ìĿ´
Ġëª© ìĨĮ
ê½ ¤
Īë ł
ë¡ľ ëıĦ
ìļ° ìĻĢ
Ġìĭľ ê°ģ
Ġì° Ŀ
ĠìĥĿê°ģ íķĺê³ł
ë¬´ ì§Ģ
ìŀ¬ë¯¸ ê°Ģ
ĠìĤ¬ëŀĮ ìĿĺ
ëª¨ ëĳĲ
ĠíķĺëĬĶ ì§Ģ
ìĺ¨ ëĭ¤
íĭ° ë¸Į
ĠìĬ¬ íĶĶ
ĠìĤ° ìľ¼ë¡ľ
Ġë°ĶëĢ Į
Ġíİĳ íİĳ
ì§Ħ ìłķíķľ
ìłĦ ì²´
ìĦ± ìļ°
ĠëĤ¨ ëħĢ
íĿ ¡
ê´Ģ ëŀĮ
ĠìĥĿ ìĥĿ
Ġë°ĺìłĦ ëıĦ
ìķĦìĿ´ ëĵ¤ìĿ´
¬ëį ĺ
B S
Ġë ĩĮ
ê²Į ìŀĦ
Ġë³´ ìķĺëĭ¤
ë° ¤
Ġì¢ĭ ìĬµëĭĪëĭ¤
Ġëª» íķł
íļ į
ëŀĢ ëĭ¤
Ġìķ¡ìħĺ ìĿĢ
Ġë§Įëĵł ëĭ¤
Ġì§± ì§±
Ġìŀ¬ ëĤľ
ĠìĿĮìķħ ëıĦ
Ġì© Į
Ġê´ĳ ê³ł
Ġ T
ì§Ģ ë§Ĳ
íķĺ êµ¬
ëį ©
ëĤĺ ë§Į
ê±° ë©´
ëĮĢ ë¥¼
ĠìŀĪ ìľ¼ë©´
ê·¸ ë¦¬
ìĦ± ìĿĺ
ĠëĮĢ íĳľ
ĠìķĬ ì§Ģë§Į
ĠíĿ ¡
ìĪ Ń
ĠëĨ į
ëŁ½ ê³ł
Ġê°ķ ëł¬
ì§ĳ ëĭĪëĭ¤
ìĶ¬ ìĿĢ
Ġì¡´ ê²½
ĠëĪĪë¬¼ ìĿĦ
ĠìĿ´ìłľ ìķ¼
Ġë¹¼ ê³ł
âĻ¡ âĻ¡
ìĬ¤íĥĢ ìĿ¼
ìħĶ ìĦľ
ë´£ ëĬĶëį°
Ġë´£ ëĬĶëį°
Ġ A
Ġì ª½
ĠìĺģíĻĶ ëĿ¼ëĬĶ
ë¡ľ ìĦľ
ĠìķĦ ì¹¨
íģ ¬ë¦¬ìĬ¤
Ġì² ´
ĠìĤ´ ê³ł
ĠìĺĪ ìłĦ
Ġìĭ¬ ê°ģ
ĠìĬ¬ íİ
ĠëĨĴ ëĭ¤
ĠìĥĿ ìķł
ìĸ¼ êµ´
Ġì» ¨
ì§Ģê¸Ī ê¹Įì§Ģ
Ġì¢ħ êµĲ
ĠìĿ´ìģĺ ê³ł
Ġì Į
ìĿ´ ê¸°
ìĿ¸ íĬ¸
ì£¼ ìłľ
íŀ Ĳ
ë¬´ ìĹĩ
ëıĻ ìĥĿ
Ġì¢Ģ ëįĶ
Ġìķ¡ìħĺ ìĺģíĻĶ
ĠëıĻ ë¬¼
a r
ëĭ ¬ëĿ¼
íķ µ
ê° ĸ
ìķ ķ
ì§Ģ ìĸ´
ĠìķĦ ëł¨
ìľ¼ ëĭĪê¹Į
ê±° ìŀĦ
ë² ¨
ĠìĬ¤ íı¬
ë¯¸ ê°Ģ
ĠìĹ°ê¸° ìŀĲ
Ġìŀ¬ë°Į ìĬµëĭĪëĭ¤
Ġë¬´ íĺĳ
ë¶Ħ ìľĦ
íģ ¬ë¦°
ĠìĿ¼ ë¶Ģ
ìµľ ê·¼
ìĹŃ ëĮĢ
ìĿ´ëŁ° ìĺģíĻĶ
Ġê·¹ ì¹ĺ
íĺ¸ ê°Ģ
Ġëĭ¨ ìĹ°
ìĦĿ ìĿ´
Ġëªĩ ë²Ī
Ġê½ Ŀ
Ġì§Ħìĭ¬ ìľ¼ë¡ľ
ĠìłĲìĪĺ ë¥¼
ĠëĽ°ìĸ´ ëĤľ
Ġíĥľ ìĸ´
ê½ ĥ
Ġìĵ¸ ëį°
Ġë½ ĳ
Ġë§Īë¬´ ë¦¬
ìĿ´ ìłķëıĦ
ĠìĺģíĻĶ ìĿ¸ëĵ¯
Ġëĭ ®
ĠìĹ° ìĨį
Ġì§Ģ ê¸Īë´ĲëıĦ
ê·¸ ëłĩê²Į
Ġìĭľ ë¦¬
ìķĺ ì§Ģë§Į
Ġê°Ģ ìł¸
Ġìľ Į
Ġë¬´ ë¹Ħ
ĠëĤ¨ ê²¨
íĬ¸ ë§¨
Ġì§Ģë£¨ íķ´ìĦľ
ëĤł ëķĮ
ì© ¡
Ġíĳľ ìłĪ
ê¼ ´
ìĸĳ ìĿ´
ĠìĿ¸ìĥĿ ìĿĦ
ĠìķĦìī¬ ìĽĢ
Ġìĭ¸ êµ¬ëł¤
ì¡¸ ìŀĳ
ê³µíı¬ ìĺģíĻĶ
ìı ĺ
v er
ìĿ´ ìĺģíĻĶë¥¼
ëĵ £
ìĹĲ ëĮĢíķľ
ëĤĺ ëĦ¤
Ġë³´ ëĭĪê¹Į
ë§Ĳ ìĿĦ
ìĻ ĵ
Ġê² ī
íĮ ©
ìĨĮ ëħĢ
Ġê°Ļ ìķĦìĦľ
Ġë§Ĳ íķĺëĬĶ
Ġë³¸ ëĭ¤ë©´
ĠìĨĮ ìŀ¥
Ġë¯¸ ì¹ĺ
ë¦¬ë ©°
Ġê³ł ìłĦ
Ġê³ł íĨµ
Ġê±° ê¸°
ĠìŀĳíĴĪ ìĿ´ëĭ¤
ìĶ¨ ìĿĺ
ĠìĨį ìĹĲ
ĠìĿĮìķħ ìĿ´
Ġëĸł ìĺ¤
ĠìĤ¶ ìĿĺ
ĠìĶ ģìĵ¸
~~~~ ~~~~
ĠìĿĺë¯¸ ë¥¼
i t
Ġ ^
Ġ good
ê° Ĵ
ë§Į ìĿĦ
ëĦ ·
ĠìĦ ŀ
ìŀ¬ë¯¸ ëĬĶ
ĠìĤ¬ëŀĳ ê³¼
ĠìķĦê¹Ŀ ì§Ģ
Ġë©ĭ ì§Ģëĭ¤
ê°ĢëĬĶ ì¤Ħ
Ġì§Ģê¸Ī ìĿĢ
ëĲ ¬
ĠìķĦìĿ´ ëĵ¤ìĿ´
ìĬ¤ëŁ¬ ìĽĢ
ĠíĳľíĺĦ íķľ
ĠìĺģíĻĶìĺĢ ìĸ´ìļĶ
ìĻĦ ë²½
Ġëĵ±ìŀ¥ ìĿ¸ë¬¼
in g
Ġì¥ Ĳ
ĠìĬĪ íį¼
l l
ħ ¸
ê°Ģ ë¥¼
ĠëĤ´ ëł¤
ê²ł ìĸ´ìļĶ
ĠìķĪ ëı¼
Ġë³¸ ìĺģíĻĶ
Ġë¹ ¡
ĠëģĿ ëĤľ
Ġìŀ¬ë¯¸ìŀĪ ìĹĪëĭ¤
Ġë°ĺ ë³µ
ĠìŀĳíĴĪ ìĿĦ
ê´Ģ ìĿ´
Ġìŀ¥ë©´ ìĹĲìĦľ
ê°Ĳëıħ ìĿĢ
ë³Ħ ë£¨
ĠìĹĲ íĶ¼ìĨĮ
ìĥĿê°ģ ìĹĨìĿ´
ĠìķĦìĿ´ ëĵ¤
Ġëª¨ëĵł ê²Į
Ġì¹ľ êµ¬ëĵ¤
Ġìķķ ê¶Į
ì¥ Ĳ
Ġìĸ´ëł¤ ìļ´
i e
¨ ¸
Ġì Įį
ĠìĺģíĻĶ ëĵ¤
ê±° ê°Ļëĭ¤
ìĨ Ķ
Ġì§Ģ ì¼ľ
ĠëįĶ ë¶Īìĸ´
Ġë³¼ ê²Į
ìĺģ ìĿ´
íĿ ¬ë
Ġê±° ìĬ
Ġëĭ¤ìĭľ íķľë²Ī
ìĭľê°Ħ ìĹĲ
Ġìļ¸ ê³ł
Ġìļ¸ ìĹĪëĭ¤
ĠìĻ¸ ëª¨
Ġë¨¹ ê³ł
Ġê²½ íĹĺ
ĠêµŃ ë¯¼
Ġìĸ¸ìłľ ëĤĺ
¬ëį Ķ
ĠëĬ¥ ëł¥
ĠëıħíĬ¹ íķľ
Ġê²Ģ ìĥī
4 4
b s
ë ¤
ìĿ´ ìĺģíĻĶëĬĶ
ëĭ¤ ëĵ¤
íķĺ ì§Ħ
Ġìŀ Īëįĺ
ëĤĺ ëĭ¤
ìķĦ ë¹ł
ìĥģ íĻ©
ĠëĮĢ ë¶Ģë¶Ħ
ĠìłĦ íĪ¬
ê°ľ ê·¸
ê°Ĳ ëıĦ
ĠìĿ´ëŁ° ê²Į
ĠíĿ ī
ìĽĲ ëŀĺ
ëĲĺ ìĦľ
Ġì¡° íķ©
ìĹ°ê¸° ëĬĶ
Ġë°ľ ê²¬
Ġãħłãħł ãħł
Ġë§Ŀ ì³Ĳ
ĠìĬ¤ë¦´ ëŁ¬ë
íĺ¼ ìŀĲ
Ġëª¨ë¥´ê²ł ê³ł
ĠíıŃ ëł¥
ĠëģĮ ìĸ´
Ġë°Ķê¿ Ķ
Ġì°Ŀ ì°Ŀ
ĠìĿ µ
ìļ° ê¸°
Ġìŀ¬ë¯¸ ìŀĪëĦ¤ìļĶ
Ġíķľ ì°¸
ĠìĬ¤ ìĬ¤ë¡ľ
ë¯¸ ìķĪ
ìĨĮ ë¦Ħ
ìĺĢ ì§Ģë§Į
Ġê°ĲëıĻ ê³¼
Ġë¯¸ ëª¨
Ġì§Ģë£¨ íķł
ê¸´ ëĭ¤
ĠìĿĺ ìĭ¬
ĠìĬ¬ íį¼
ĠëĨĴ ìķĦ
Ġê²Į ëĭ¤ê°Ģ
ĠìķĦìī½ ëĦ¤ìļĶ
ĠëĬĲëģ¼ ëĬĶ
âĻ¥âĻ¥ âĻ¥âĻ¥
Ġë¹łìł¸ ëĵ¤
ĠìĦ¬ ìĦ¸
ìĸ´ ë¥¸
ìłĦ ìŀĳ
ìĤ¬ ê±´
ĠìĻľ ì¼Ģ
ë²Ħ ë¦¬ê³ł
ĠìĿ¼ ë°ĺ
ìĺģ íĻĺ
ĠíĹ Ĳ
íĿ ĺ
Ġì²ĺ ëŁ¼
ĠíĺĦ ëĮĢ
ë°© ìĤ¬
Ġë°ķ ìĪĺë¥¼
ĠìĻ¸ ê³Ħ
ĠìĽĥê¸° ê³ł
Ġë¹¼ ê³łëĬĶ
ĠëĶ°ëľ» íķ´ì§ĢëĬĶ
Ġëĭ¤íģĲ ë©ĺíĦ°
ìŀ¬ë¯¸ìĹĨ ìĸ´
ì³¤ ëĭ¤
ĠìĿ´íĽĦ ë¡ľ
ĠíĴĭ íĴĭ
ë ®¤
íĻĶ ëł¤
íķĺ ê²łëĭ¤
ĠìķĦ ë¥ĺ
ê±° ëĿ¼
ìĹĪ ìĿĦê¹Į
Ġëĭ¤ ë£¬
Ġê² ¬
ëĵľ ìĿĺ
ìĦ± ì¹ĺ
ê²ĥ ë§Į
ĠìĿ¸ íĦ°
ìľł ì¾Į
Ġíķł ê¹Į
ĠëıĻ ìķĪ
ĠëĤľ íķ´
ë§¤ ìļ°
íķĺëĤĺ ëıĦ
ĠëĲ ¨
ĠìĿ¸ìĥĿ ìĿĺ
Ġ4 0
ìłĦê°ľ ê°Ģ
Ġë¯¼ ë§Ŀ
Ġëĺĳ ê°Ļ
ìĸ´ìĦ¤ íĶĪ
ĠëŃī íģ´
í ĮĢ
ë¡ Ģ
Ġìĭ ±
ìłķ ìĿĢ
íĸ ĪëĦ¤ìļĶ
ëĤ´ ìĥĿ
ê·¸ ë§Į
ëĥ Ī
ãħĭãħĭãħĭãħĭ ãħĭãħĭ
Ġë§Ĳ ë¡ľ
Ġëª» íķ´
Ġìłľ ë¡ľ
Ġëģ Ķ
ë²Ħ íĬ¸
ë¬¸ ìłľ
ìŀ¬ë°Į ìĸ´
ĠìĤ¬ëŀĳ ìĿ´ìķ¼ê¸°
íĶĦ ëŀĳìĬ¤
Ġì¢ĭìķĺ ìĿĦ
ìĪľ ìĪĺ
ĠëĪĪ ìĹĲ
ì³Ĳ ìĦľ
Ġíĭ Ģìĸ´
ĠìķĦì§ģ ê¹Įì§Ģ
Ġì¤ĳê°Ħ ì¤ĳê°Ħ
ĠìĦ¸ìĥģ ìĹĲ
ìĭľíĤ¤ ëĬĶ
ì «
ìĿ¸ ëĵ¤ìĿ´
êµ ¬ëŀĳ
Ġê·¸ ëŁ¬ë
Ġê·¸ ëŁŃìłĢëŁŃ
ì¹ ¸
ì¹ ¼
Ġì¢ĭ ì§Ģë§Į
Ġìĺ ¬ëł¤
Ġì£¼ ë³Ģ
ë¹ Į
Ġê³µ ë¶Ģ
ëĸ ł
ë¨¸ ë¦¬
ëľ ©
ĠìĨį íİ¸
Ġê°Ī ëĵ±
Ġë¯¿ ìĿĦ
Ġë¶ģ íķľ
Ġë »
íķ Ń
ê° ĵ
ìĿ´ ëŁ¬
ìł ¼
ë¦¬ ê¸°
ìľ Ħë¡ľ
Ġë³´ ê¸¸
Ġë° ĭ
ìŀ¥ ìĹĲìĦľ
Ġë´¤ ëįĶëĭĪ
ê²ĥ ëĵ¤
íĮ į
íİ Ļ
ê°ľ ìĹ°
ëįĶ ëŁ½ê²Į
Ġë§İ ìķĦ
Ġë°°ìļ° ëĵ¤ëıĦ
Ġì¢ĭìķĦ íķĺëĬĶëį°
ìĭĿ ìĿĺ
íĤ¤ ëĬĶ
íħĮ ìĿ¼
Ġê²°ë§Ĳ ìĿĢ
ĠëĴ¤ ë¡ľ
ì¯ §
ãħłãħłãħłãħł ãħłãħłãħłãħł
Ġì¦Ĳê²ģ ê²Į
ã Ģ
Ġìķ Īë¬´
ëĤĺ ëĦ¤ìļĶ
ĠëĤ ³
ìŀĲ ëĤĺ
Ġìĭľ íĬ¸ì½¤
Ġìłķë§Ĳ ë¡ľ
ìĭł ìĿĦ
ĠìķĬ ëĤĺ
Ġë¹Ħ íĺĦìĭ¤
ìŀ¬ë°Į ê³ł
ĠëĤĺìĺ¤ ë©´
Ġëĵ¤ ìĹĪëĭ¤
ê°ĲëıĻ ìłģìĿ´
ĠíĺĦìĭ¤ ìłģìĿ¸
ì§Ģë£¨ íķľ
ĠìķĪë³´ ê³ł
!!!!!!!! !!!!!!!!
Ń ī
ê° ±
ìĦ ¹
ìĸ´ ìłľ
ëĭĪ ê¹Ĳ
Ġëª ½
ìłĦ íĺķìłģìĿ¸
ìĻĢ ìļ°
ĠìĥĿê°ģ íķĺëĬĶ
ê¸´ íķľëį°
Ġëª°ìŀħ íķ´ìĦľ
Ġë°© ë²ķ
Ġë»Ķ íķĺê³ł
Ġë¬¸ íĻĶ
Ġìĥģìĥģ ëł¥
ĠëĬĺ ìĸ´
1 3
o v
Ġ f
ĠìĹ ĺ
êµ ¬ëĿ¼
Ġì¢ Į
ĠìĹĨ ìĹĪëįĺ
ì¹ Ļ
ìłĦ ëĵľ
ê·¸ ëĮĢë¡ľ
Ġì¢ĭìķĺ ì§Ģë§Į
ĠìĺĪ ìłĦìĹĲ
ĠìĺĪ ê³łíİ¸
Ġìļ°ë¦¬ ê°Ģ
Ġëª¨ë¥´ê²ł ì§Ģë§Į
ìĤ¼ ë¥ĺ
Ġíŀĺëĵ¤ ëĭ¤
ê°Ķ ëĭ¤
ĠìķĶ íĬ¼
Ġì±Ħ ëĦĲ
Ġë°ĭ ë°ĭ
Ġ !!!
ĠìĹ ħ
ìķĦ ìī¬
ĠìķĦ ëĵ¤
íķ´ ì§Ģ
Ġë³´ ê¸´
Ġë³´ ìĿ¸ëĭ¤
ìłĲ ìĪĺ
ìłķ ìĿĺ
ìłģ ìĿĢ
Ġìĭľ ìĭľ
íķ¨ ìĿĢ
ĠìłĦ ìŀĳ
ĠìķĬ ìĿĦê¹Į
Ġë¬´ ì²Ļ
ìĭ¤ íķľ
Ġë§İ ê³ł
Īëį °
Ġì§Ģë£¨ íķĺê²Į
ë³´ê³ł ìĭ¶ìĿĢ
ãħİãħİ ãħİãħİ
ë¬¼ ìĿ´
Ġì¢ĭìķĺ ìľ¼ëĤĺ
Ġê¸°ëĮĢ íĸĪëĬĶëį°
ìĤ¬ëŀĮ ëĵ¤ìĿĢ
ĠíĬ¹ ìĪĺ
Ġíİ¸ ê²¬
ĠíĥĢ ìŀĦ
ĠìĽĥìĿĮ ìĿ´
Ġê°Ĳìłķ ìĿĦ
V D
ì ĩ
Ġì į¼
ìŀ Ń
ìļĶ ìĿ¼
Ġë³´ ë©°
ìļ© ìľ¼ë¡ľ
íĸĪ ëĤĺ
íĸĪ ìĸ´
Ġëª¨ ë¥¼
ìħ Ģ
ê²ł ìĬµëĭĪëĭ¤
Ġëª» íķľëĭ¤
Ġë© ĺ
Ġìļ° ì£¼
ìŀ¬ë°Į ëĦ¤ìļĶ
ĠìĽĥ ê¹Ģ
ìĹĩ ëĭ¤
ĠíĨ °
ë°Ľ ìĿĢ
ëĺ ĳ
ëıħ íĬ¹
ĠìŀĬ ìĿĦ
ĠìĿ´ìľł ë¥¼
ì¸ µ
ĠëłĪ ìĿ´
ĪëįĶ ëĭĪ
Ġì¼Ģ ìĿ´ë¸Ķ
Ġìĸ´ë¦° ìĿ´
Ġë²Į ìį¨
ì¥ ¬
Ġëįķ ë¶ĦìĹĲ
ĠíĹĲë¦¬ ìļ°ëĵľ
Ġë ī´
ãħ £
.... .....
Ġìĭľ ëıĦ
ë²Ħ ê·¸
ë²Ħ ë¦¬ëĬĶ
ë²Ħ ìĬ¤íĦ°
ë³´ê³ł ìĭ¶ëĭ¤
Ġìĭł íĮĮ
Ġì£½ ìĿĦ
Ġê´Ģ íķľ
ë¶Ī ìĮį
Ġìłķìĭł ë³ĳ
ĠìŀĬíĺĢ ì§Ģì§Ģ
Ġì±Ļ ê²¨
ĠìĽĢ ì§ģ
Ļ ëĭĪëĭ¤
ìĿ¸ ê³¼
Ġëĭ¤ ìĸĳ
íķĺê³ł ìŀĲ
ĠëĮĢ íķ´ìĦľ
ĠëĬĲ ìĻĢë¥´
ì¢ĭ ìĿĮ
Ġëĸ ¡
ëĬĲ ëĭĪ
00 00
Ġë¡ľ ê·¸ìĿ¸
ìŀ¬ë¯¸ìŀĪ ëĭ¤
ëŁ¬ë ĶĶ
ìĸ´ë¦´ ìłģ
ëİ Ģ
Ġë§¨ ëĤł
ìĸĺ ê¸°
ë¯¿ ê³ł
Ġë Ł
ìĿ´ ë¡ľ
ìĹĲ ë¡ľ
ìĸ´ ì©Į
ìĹĨ ëĦ¤ìļĶ
ìĥģ ìĺģ
ìĺ¤ ìĺ¤
ĠìĦ ¼
Ġë´¤ ìĿĦëķĮ
Ġìŀ¬ë°Į ëĭ¤ê³ł
ë£¨ ìĬ¤
Ġë¬´ ìĸ¸
Ġì² Ļ
ì²´ ê°Ģ
Ġë¹Ħ íĮĲ
ìķĪ íĥĢ
Ġì¢ĭìķĦ íķ´ìĦľ
ĠìŀĳíĴĪ ìĿĢ
ĠëĦĺ ì¹ĺëĬĶ
íĸī ë³µ
Ġë³´ìĹ¬ ì£¼ê³ł
ìĸ¸ ëĭĪ
Ġë³¼ë§Į íķĺëĭ¤
ĠëĮĢìĤ¬ ê°Ģ
ë¦¬ìĬ¤ ë§Ī
Ġì¢ĭê²ł ìĸ´ìļĶ
Ġì§ģ ìłĳ
ĠìĥĪë¡ Ń
o m
ª ħ
ìĿ´ íģ¬
¬ë Ł¬
ë¦¬ íı¬
ìĺ ¬ë¦¬
ìķ¼ ë§Ĳë¡ľ
Ġì¢ĭ ê²Į
ìŀĪ ëĤĺ
¬ëŀ ĺ
ëħ ¼
ë£ ©
ìĻĢ ìĿĺ
ëł¤ ìļĶ
ìĺĢ ê³ł
ĠìĿ¼ íĴĪ
ĠìĤ¬ëŀĳ ìĿĺ
Ġìĥģ ìĹħ
ëĸ Ħ
Ġê²° ê³¼
ëĭĪë ¡ľ
Ġì§ĳ ìĹĲìĦľ
ĠìĭłìĦł íķľ
ĠìĹīìĦ± íķľ
,. ,.
ĠìķĪíĥĢê¹Ŀ ëĭ¤
Ġë Ŀ
¬ë ĵľ
ĠìĿ´ ìļ©
ìļĶ ìĨĮ
ìķĦ ëĤ´
ìłĲ ìĿ´ëĭ¤
ìłķ ìļ°
ëĶ ĺ
ìłľ ëĮĢë¡ľ
Ġìĺ¤ ë°Ķ
Ġìĵ°ëłĪê¸° ëĭ¤
ì¢Ģ ë¹Ħ
ĠëĬĲê»´ ì§Ħëĭ¤
ì¸ ¡
ëĳ ĳ
Ġì« Į
Ġíĭ°ë¹Ħ ìĹĲìĦľ
Ġë¹Į ëł¤
ĠëŁ¬ ëĭĿíĥĢìŀĦ
Ġë®¤ ì§Ģì»¬
ì¦Īë ¥¼
Ġ I
ìĿ´ ë¦Ħ
ê¸° ìĹĲëĬĶ
ĠìķĦ íĶĶ
Ġ1 2
ĠìĨ Ķì§ģ
Ġëª¨ë¥´ ê²Į
ĠëĶ° ë¡ľ
ë¨¹ ëĬĶ
ĠìĹ°ê¸°ëł¥ ëıĦ
Ġê·¸ëłĩ ì§Ģ
ëĦĪ ìĬ¤
ĠìŀĪìĹĪ ì§Ģë§Į
Ġt he
Ġëĥ ī
¨ ¼
.. ^^
ãħ Ĺ
íķĺ ëįĺëį°
ìĦľ ëıĦ
ìłĲ ìłķëıĦ
ìĤ ¬ëĿ¼
ĠìĹĨ ì§Ģ
ĠëĤĺ ë§Į
ì§Ħ ìĿ´
Ġíķľ ë§ĪëĶĶ
Ġê¸° ìĪł
ëł¤ ëĤĺ
íĸĪ ëĭ¤ê³ł
ĠëįĶ ëŁ¬ìļ´
Ġëĵľ ëŁ½ê²Į
Ġëĵľ ë¦½ëĭĪëĭ¤
ìĥĿ íĻľ
ĠìĹ¬ íĸī
Ġìŀĳ ìĿĢ
ë°Ķ ë¡ľ
Ġì£½ ìĿ´ê³ł
Ġíıī ìĿ´
ĠëĪĦ êµ¬ëĤĺ
ĠíĤ ¬ë§ģíĥĢìŀĦ
Ġãħ Ī
Ġì§Ī ì§Īëģ
Ġë²ł ìĬ¤íĬ¸
Ġë¬´ìĦŃ ëĭ¤
Ġê¹¨ ëĭ¬
Ġë¶Īë Ł¬
Ġì¦Ĳê±° ìļ´
íķ´ ì§Ħëĭ¤
ĠìĹĨ ìĸ´ìļĶ
ìļ´ ëĵľ
Ġ1 8
Ġìŀĺ íķĺê³ł
ìŀĦ ìĿĦ
ë³¸ ìĺģíĻĶ
íı ´
ĠìĿ¼ ìĿ´
ëªħ ìĿĦ
Ġì£½ ìĿĢ
íĽĦ íļĮ
ì» ¥
ĠëĤ¨ìŀĲ ê°Ģ
Ġíĺ¸ ëŁ¬
ëĨĪ ëĵ¤
Īë² ķ
Ġë¬ĺ ìĤ¬
z z
ĠìĿ´ ëķĮ
ìĸ´ ëĬĲ
ìķĦ ëĬĶ
ë³´ ëĦ¤
íĨł ë¡Ŀ
ĠìĿ¸ íķ´
ĠìŀĲ ì£¼
ĠìĤ¬ëŀĮ ëĵ¤ìĿĺ
ì¼ ĵ
Ġë¶Ī ì¾Į
ĠìĻĦìłĦ íŀĪ
Ġë°ľ ë¡ľ
Ġìĵ° ëŀĺê¸°
Ġìŀĳê°Ģ ê°Ģ
ĠìĿ´ìģĺ ëĭ¤
ì·¨ íĸ¥
ë½ ķ
2 2
© ĺ
Ġ ãħĩãħĩ
İ ģ
ìĹ ĳ
ê¸ ĭ
ìĸ´ ìĥī
ë© ľë¡ľ
ìŀĪ ìĸ´ìĦľ
Ġìĺ Ĩ
ë´ ħëĭĪëĭ¤
ìłľ ë¡ľ
Ġê¸° ê°Ģ
ìŀĦ ìĬ¤
ê°Ĳ ìĿĢ
Ġë³¼ ìĪĺìŀĪ
Ġìĭ¶ ìĿĦ
ìķł ê°Ģ
ĠìĤ¬ëŀĳ ìĬ¤ëŁ¬ìļ´
ìĨį ìĿĺ
Ġê³ł ë§Ī
Ġë°Ķ ê¾¸
Ġíŀĺ ìĿ´
Ġê°ĢìĬ´ ìķĦ
ìŀ¥ë©´ ìĿĢ
Ġê°Ħ ëĭ¤
ĠìĭłìĦł íķĺê³ł
Ġì¶Ķìĸµ ìĿĺ
Ġë³´ìķĺ ìĬµëĭĪëĭ¤
Ġê°Ģì¹ĺ ê°Ģ
ĠìĺĪë» Ĳ
ë°©ìĤ¬ ìĪĺ
Ġë ł
ëĭ ī
ìĿ´ ë²Ī
ìĹ ĪëĥĲ
ĠìĺģíĻĶ ëĦ¤
ĠìķĦ íĶĦ
Ġê·¸ ëĭ¤ì§Ģ
Ġìĸ´ ì²ĺêµ¬ëĭĪ
Ġë§Į ëĤĺ
íİ ľ
ìĦ¸ ê¸°
Ġëª» ìĥĿ
ëħĦ ë§ĮìĹĲ
ëĲĺ ëĦ¤ìļĶ
ë³´ê³ł ëĤĺìĦľ
íħ Ŀ
ëĤ¨ ëĬĶ
ê²¨ ì§Ħ
ĠìĦ± ìĿ¸
ëĲ ©ëĭĪëĭ¤
Ġê³¼ ìŀ¥
ĠëĶ± íŀĪ
ì²ĺìĿĮ ìĹĶ
Ġë¶Ģì¡± íķĺëĭ¤
Ġìĭ¶ìĿĢ ëį°
Ġë¬¸ìłľ ê°Ģ
Ġë¿Ĳ ìĿ´ëĭ¤
ĠìĻľìĿ´ ëŀĺ
ĠìĦ¹ ìĬ¤
ìĸ´ëł¸ ìĿĦ
ĠëĬĲê¼ Ī
ì§ĢëıĦìķĬ ê³ł
í ľĺ
Ħ ìĥĪ
Ń ëĭĪëĭ¤
ìĹĲ íľ´
Ġê·¸ ê±°
ìłĲ ì¤Į
ìĬ¤ íĭ°
ìĬ¤ ì¼Ģ
Ġë´¤ ìĿĦ
íķ¨ ìĿĺ
Ġì¤ ¬
ìĭł ë¶Ħ
Ġëª» íķ¨
Ġê°ľ ë¿Ķ
Ġë© Ī
ìĽĲ ìĿĺ
ëĲĺ ìĹĪëĭ¤
ë¦¬ë į
ìķł ëĭĪë©ĶìĿ´ìħĺ
Ġëªħ íĴĪ
ĠíķĺëĤĺ ìĿĺ
ë³¼ ë§Įíķľ
Ġë³´ìĹ¬ ì¤Ģëĭ¤
Ġëĭ¨ ì§Ģ
ëĬ¥ ëł¥
ë§Įëĵ¤ ìĸ´
ëıħ ë¦½
ĠìĨĮìŀ¬ ê°Ģ
Ġê¸´ìŀ¥ê°Ĳ ëıĦ
ĪëĶ §
Ġë¬´ìĹĩ ìĿĦ
ì¶© ê²©
ê¹Ĭ ê²Į
ĠíķĻ ìĥĿ
ĠíŀĪ ìĸ´ë¡ľ
Ġë©įì²Ń íķľ
ìĿ ½
íĻ Ģ
ëĤ Ļ
ëį ¤
ĠìĿ´ ëģĮ
ë¡ľ ëĵľ
ëĦ ¹
ë° ĸ
ë¶ ķ
ĠìĹĨ ìĬµëĭĪëĭ¤
Ġìĥ Īëģ¼
Ġìĺ ·
ìĦ± ê³¼
Ġìŀ¬ë°Į ëĦ¤
ĠìĥĿê°ģ ìĹĨìĿ´
ê´ ľ
Ġë¯¸ ëĵľ
ë²Ħ ë¦¼
ĠìŀĪëĬĶ ì§Ģ
ĠíķĺëĬĶ ê±°
ì´ Į
ĠìľĦ íķ´ìĦľ
ĠìĨį ìĹĲìĦľ
ĠìłķëıĦ ìĿĺ
ëıĪ ì£¼ê³ł
ĠìĿ¸ìĥģ ìłģìĿ´
Ġê¿Ī ìĿĦ
ĠëĽ°ìĸ´ ëĦĺ
ĠìĿ´ìłķëıĦ ë©´
ĠìķĮê²ł ëĬĶëį°
Ġë° ĳ
ìĹ° ìĿ´
ĠìĥĿê°ģ íķ¨
ëħĦ ìĿĺ
Ġë¹Ħ íķĺë©´
ĠìķĪë ´Ĳ
Ġìĥģ ê´Ģ
ì¶Ķ ê¸°
ê²¨ ìĦľ
ĠìĿ´íķ´ íķĺê¸°
ĠëĨĴ ê²Į
ë²Ķ ì£Ħ
ê²ģ ëĭĪëĭ¤
ĠëĶĶ ì¦ĪëĭĪ
Ġì²Ń ìĨĮëħĦ
ê²ĥê°Ļ ìķĦìļĶ
ĠíĴį ê²½
ĠíĪ¬ ìŀĲ
Ġì§Ŀ ìĿ´
Ġì°Į ì§Ī
Ġìĸ´ë¦´ ëķĮ
ĠìĿĳ ìĽĲ
. ,
¬ ĺ
ë Įĵê¸Ģ
Ġì ¯
Ġì µĿìĺ¤
ëĭ Į
ëĤĺ ìĺ¬
Ġíķĺ ìĿ´
ĠìŀĪ êµ¬ëĤĺ
ê·¸ ëĤĺë§Ī
Ġê°Ģ ë³įê²Į
íĮ ĶìĿ´
ëŁ¬ ìĽĮ
ãħĭãħĭãħĭãħĭ ãħĭãħĭãħĭ
Ġë§Ĳ ìķĦë¨¹
Ġíķ´ ëĿ¼
ĠìķĦê¹Į ìļ¸
ì¼Ģ ìĿ´ë¸Ķ
ìĶ¬ ìĿ´
Ġëª¨ë¥´ê²ł ìĿĮ
Ġìı Ł
Ġì¤ĳìļĶ íķľ
ĠíĥĦíĥĦ íķľ
Ġê¹ľ ì§Ŀ
ìĿ´ ëıĦ
ëĭĪ ëĭ¹
ìĭľ ìĽĲ
ìĿĮ ìĿ´
ëª ¬
ĠìłĦ ë°ĺ
Ġìļ° ëł¤
Ġìŀ¬ë¯¸ìĹĨ ê²Į
ë°ľ ìĹ°ê¸°
ĠìĦ± ê²©
Ġë©ĭ ìŀĪëĭ¤
00 0
ëĵľëĿ¼ë§Ī ê°Ģ
Ġì§ľì¦Ŀ ëĤľëĭ¤
ĠìĪĺì¤Ģ ìĿĺ
Ġì¹ĺ ê³ł
ëķ ħ
ĠêµĲ ìľ¡
ĠíĥĢ ìĿ´
Ġìłľìŀĳ ë¹Ħ
ìĿ¸ê°Ħ ìĿĺ
âĺ Ĩ
¬ ¸
Ń ìłľ
Ġë Į
ìĿ´ ìģĺ
Ġìķ ¤
ê¸° ì§Ģ
ë§Į ìĿĢ
Ġë³´ ëł¤ê³ł
ì£¼ ê°Ģ
Ġìłķ ìĿĺ
Ġìĸ´ ìļ°
ĠëĤ´ ë©´
ìķĺ ìĿĦ
ìŀĦ ìĥĪ
Ġë³¼ ê±°
Ġíķ´ ê²°
Ġíķł ë§ĲìĿ´
Ġê´Ģ ìĭ¬
ìĤ´ ìĿ¸
íĪ ¬ë
ĠëĤ¨ìŀĲ ìĿĺ
Ġë°Ľ ìĿĦ
ĠìºĲë¦ŃíĦ° ê°Ģ
ìĹ¬ë Ł¬ë
ê·Ģ ìĹ½
ĠìĨĮë¦Ħ ìĿ´
ëĮĢíķľ ë¯¼êµŃ
Ġê²¨ ìļ°
Ġê¹¨ëĭ« ê²Į
ë ·
Ī Ħ
ìĿ´ ëĵ¤
ê°Ģ ë©´
ìĿ¸ ê²ĥ
ê¹ ģ
ê±° ìĿĺ
ìŀĲ ëĵ¤ìĿ´
ë¶Ģ ìŀĳ
ĠìŀĲ ìĤ´
Ġìļ° ìłķ
Ġëħ¸ ëĭµ
ê°ķ íĺ¸
Ġë°© ìĺģ
Ġì°į ìĸ´
Ġ5 0
ìŀ¬ë°ĭ ëĭ¤
Ġíĸīë³µ íķľ
Ġê°ľìĹ° ìĦ±ìĿ´
Ġê°ľìĹ° ìĦ±ëıĦ
ìĺģìĥģ ë¯¸
Ġëĺĳ ê°ĻìĿĢ
Īë²½ ìĹĲ
. ^^
ĠìĹ ¿
ë¦¬ ì¹´
ëł Ĳ
Ġë³´ ìŀĲ
ĠìŀĪ ìĹĪëĬĶëį°
íĸĪ ìľ¼ëĤĺ
ĠìķĬ ëĦ¤ìļĶ
ĠìĿ´ëŁ° ìĺģíĻĶê°Ģ
ëĲĺ ê²Į
Ġëĭ¹ ìĹ°
ĠíĹĪ ìĦ¸
ì» ·
ĠëĤ® ê²Į
Ġë¹ł ì§Ħ
ìķĦìĿ´ ê°Ģ
ìķ½ íķľ
Ġìķŀ ìľ¼ë¡ľëıĦ
ë³´ì§Ģ ë§Ī
Ġêµ° ëĮĢ
ĠìķĦë¦Ħëĭ¤ ìĽĢ
Ġì§Ŀ íīģ
Ġíı¬ë ¥´ëħ¸
4 0
Ġ ãĦ±
.. ;;
Ġí ĳ¸
ë¡ľ ë§Į
ìķĦ ìłĢìĶ¨
Ġê·¸ ê±´
Ġëĭ ¥
ë³´ ìŀĲ
Ġë° ĳìĹĲ
Ġë§Į íķľ
ê·¸ ë¦¼
ì¹ĺ ê°Ģ
íķĺëĬĶ ê±´
ĠìķĪ ìĵ°
ĠìķĮ ìĪĺ
Ġì§Ģë£¨ íĸĪëĭ¤
ëħ¸ ëĭµ
ìĹĨëĬĶ ìĺģíĻĶ
ĠëĤĺìĺ¤ ì§Ģ
Ġë¶Ħ ëĵ¤ìĿĢ
Ġëªħìŀĳ ìĿ´
Ġë¡ľ ë´ĩ
Ġìľłì¹ĺ íķĺëĭ¤
ĠìĿĮìķħ ê³¼
Ġíķľë²Ī ì¯¤
Ġëĳĺ ì§¸
Ġì© Ĳëĭ¤
ĠëĭĪ ì½ľ
ìĦ¸ìĥģ ìĹĲ
ĠM ì°½
OOO ê¸°
Ġì£½ëĬĶ ì¤Ħ
³ ¸
¬ë łĪ
ìĸ´ ë¦¬
ĠëĤ ©
ìĺģíĻĶ ìĿ¸ëį°
ìĿĮ ìĿĦ
Ġëĭ¤ ëĭĪ
Ġìĸ´ ë¨¸ëĭĪ
Ġìĺ ¬ë¦¬
ĠìĿ¸ ëĤ´
ë¬¼ ìĿĦ
Ġìĺģ íĺ¼
Ġíĥ Ĳ
Ġê°ķ ëł¥
Ġë§Įëĵ¤ìĸ´ ëıĦ
Ġëĸ¨ìĸ´ ì§Ħëĭ¤
Ġìķ¼ ëıĻ
Ġìłľëª© ìĿ´
Ġê¸°ëĭ¤ ëł¤
ĠìķĪë³ ¼
ëłĪë ©ĺ
ìĺĽëĤł ìĹĲ
ìĭľì²Ń ë¥ł
Ġìĺ¤ëŀľ ë§Į
ìĹ ł
Ġí Ħ
ĠìķĦ ìĺĪ
Ġë³´ ëĭ¤ëĬĶ
ë³´ ëĭĪê¹Į
ìłķ ìłģìĿ¸
ìŀ¥ ìĿĦ
Ġì§Ģ êµ¬
íĨ ±
ë¯¸ ëĦ¤
Ġê¸° íļĮ
ëł¤ ëĭ¤ê°Ģ
ë¬ µ
êµ¬ ìĦ±
Ġìŀĺ ìĸ´ìļ¸
ĠìĥĿê°ģ ëĤĺìĦľ
Ġìĺ¤ ëŀ«
Ġê¹ İ
ëĭ¤ëĬĶ ê±°
ëĭ¤ëĬĶ ê±¸
ë´¤ ëĦ¤ìļĶ
ĠíķĺëĬĶ ê²Į
ìĹĲê²Į ëĬĶ
ë¡Ŀ ë²ĦìĬ¤íĦ°
ĠìľĦ ëĮĢíķľ
ĠíķľêµŃ ìĺģíĻĶëĬĶ
ì§Ģë£¨ íķ´
íĨµ ëł¹
ĠìĹ¬ìļ´ ìĿĦ
ìķ½ ê°Ħ
ĠíĨµ ì¾Į
ĠëĬĲëĤĦ ìĪĺ
ĠíĿĶ íķľ
ĠíķĦ ë¦Ħ
7 0
~ !!!
ë Ľ°
Ġ /
Ġ l
Ġìŀ Ń
ë¦¬ íķľ
Ġì§ Īë
ìľ¼ë¡ľ ëĬĶ
íĺ Ī
ì¶ ¤
ĠëĮĢ ë³¸
ì¢ Į
Ġìµľê³ł ìŀħëĭĪëĭ¤
ë¬¸ íĻĶ
íĤ ¬
Ġê°Ĳ íĿ¥
ĠíĮ ĮìĿ´
ìĿ´ëŁ° ê²Į
ĠìĹ°ì¶ľ ê³¼
ĠìĦ¸ ëł¨
íĺķ ëĭĺ
ëĭĪë ¥¼
ê°ĲëıĻ ìłģìĿ¸
Ġê°ĢìĬ´ ìĹĲ
Ġ7 0
ë³ĳ ë§Ľ
Ġê½ ĥ
Ġë¬´ìĹĩ ìĿ¸ì§Ģ
Ġëĳĺ ìĿ´
Ġì»¤ íĶĮ
Ġê°ĸ ê³ł
ëħĦëıĦ ìĹĲ
ĠìĺĪìģĺ ê³ł
íĭ°ë¹Ħ ìĹĲìĦľ
¸ Ķ
íĻĶ ë©´
ì§Ģ ë©´
ìĭ ¬ë
ê²Į ìļĶ
íķ´ ì£¼ìĦ¸ìļĶ
Ġê·¸ ê²ĥëıĦ
Ġíķĺ ëĬĺ
Ġë´ ħëĭĪëĭ¤
ì§Ħ ìĭ¤
ìŀĪ ìĹĪëĭ¤
ìłĦ ë¬¸
Ġì§Ģ ëĤĺëıĦ
ëĵľ ìĭľ
Ġëı ĦìłĦ
ĠìĪĺ ê³ł
ĠìĥĿê°ģ íķĺë©´
ĠìķĦëĭ ĻëĭĪëĭ¤
Ġë§Įëĵ¤ ëĭ¤ëĭĪ
ìĦł ìĥĿ
Ġìĵ°ëłĪê¸° ê°ĻìĿĢ
Ġíĥ ģ
ì¢ħ ìĿ¼
ĠìĹ´ ë°Ľ
ĠìŀĲì²´ ëĬĶ
Ġì¹´ ë¦¬ìĬ¤ë§Ī
íĻį ì½©
ĠìĹ¬ê¸° ìĦľ
Ġì°© íķľ
ĠíĹĲë¦¬ ìĽĥ
ìķĪëĲ ¨
ëłĪë©ĺ íĥĢ
° ľ
ë Ŀ
ë© į
ìľ Į
ì¤ ¬ëĭ¤
íĺ Ĳ
ìĹ¬ íĸī
Ġê¸° ëıħêµĲ
ëķĮ ëĬĶ
ĠìĿ¸ ê¸°
Ġìłľ ìĻ¸
ëĥĲ ê³ł
ë²Ī ìĿĢ
Ġë°°ìļ° ë¥¼
Ġì¡° ìŀĳ
Ġë°ĺ ê°ľëıĦ
Ġíķł ìĪĺ
Ġìļ¸ ì»¥
ĠíĬ¹ ìĿ´
ìĿ´ê±´ ëŃĲ
Ġìļ°ë¦¬ ìĿĺ
ĠìłĦê°ľ ëıĦ
ìŀ¡ ê³ł
ê¸°ëĮĢ ìķĪíķĺê³ł
Ġìŀł ê¹Ĳ
Ġê¸´ìŀ¥ê°Ĳ ìĿ´
ĠêµŃ ëĤ´
???? ????
Ġëĵ£ ê³ł
e n
ª ¼
ëĬĶ ëĮĢ
ĠìĿ´ ëıĦ
ë§Į ëĭ¤
ìŀĲ ëĵ¤ìĿĺ
ĠëĤ´ ìĿ¸ìĥĿ
Ġê¸° ì¤Ģ
ë¥´ ê²Į
Ġë§Įëĵ¤ ë©´
ë´¤ ì§Ģë§Į
Ġë°Ķ ëŀįëĭĪëĭ¤
ëĸ ¡
ĠìĤ´ ëł¤
Ġíı ´
ìĶ¨ ëĬĶ
ĠíĸĪ ìľ¼ë©´
ê¸Ģ ìİĦ
íĺķ ëŀĺ
ĠëĬĲëĤĮ ìĿĺ
ëĶ° ìľĦ
ê·¸ëŀĺ íĶ½
âĻ¥âĻ¥ âĻ¥
Ġì¶ľìĹ° ì§Ħ
ìłĲëĮĢ ëĬĶ
ĠìŀĲìĭł ìĿ´
ĠëĬĲê¼ Īëĭ¤
ë¦¬íı¬ íĦ°
Ġ G
Ġ ~~
ķ ëĭĪëĭ¤
ì§Ģ ìļĶ
ĠëĤ Ļ
ĠìķĦ íĶĪ
ìĭľ ìĤ¬íļĮ
Ġíķĺ ëĦ¤
Ġëĭ¤ ë¥¼
ê±´ ë§Į
ĠìĬ¤ íģ¬ë¦°
ë¯¸ ìĬ¤
ê²ĥ ê°ĻìĿĢ
ë¶Ħ ìĿĢ
ĠìķĪ ìĹĲ
ĠëĤ¨ ìĿĢ
íĬ¸ ìĿĺ
ì¢ĭ ìķĺëĭ¤
ĠëģĿ ìĿ´
Ġë´Ĳ ì¤Ħ
Ġëħ Ħ
íħ ĮìĿ´
ĠìŀĳíĴĪ ìĦ±
Ġíĥ ĳ
Ġëĸ ¨
Ġíİ ¼
ĠìķĦìĿ´ ëıĮ
ĠìŀĶ ëľ©
Ġë°ķ ì§Ħ
ĠìĿ¼ë³¸ ìĺģíĻĶ
ĠìĿ´ìłľ ìĦľìķ¼
ë³Ħë¡ľ ëĭ¤
ĠìŀĬ ì§Ģ
Ġë¹¼ ë©´
ëłĪìĿ´ ìħĺ
Ġëĭ¨ìĪľ íķľ
ë¶Īë ¥ľ
o st
¥ ë¯¸
ã ģ
ìĿ´ ìĬ¨
íķĺ êµ°
Ġìĭ ¬ë¦¬ë
ìłĲ ìĿ´ìĥģ
Ġìŀ¬ë °©
ì² ©
Ġëĭ¤ ë£¨
ìŀ¥ ìķł
ëĵľ ë¥¼
ëĵľ ë¦½ëĭĪëĭ¤
Ġìµľ ê°ķ
ĠëĮĢ íĻĶ
ì¤ĳ ìĿ´
ê°Ļ ê³ł
íıīìłĲ ìĿĦ
ĠíķĺëĤĺ ê°ĻìĿ´
ìĿ´ëŁ° ê±¸
ìĻĶ ëĭ¤
ëĭĪë İģ
ĠìĦ¤ ëĵĿ
ĠìĿ¸ê°Ħ ìĿ´
Ġë¶ĦìľĦ ê¸°ê°Ģ
ĠìĭľëĮĢ ë¥¼
ĠíĥĦ ìĥĿ
íĦ ¸
ëĤ® ìĿĢ
íĮĮìĿ´ ìĸ´
ĠìķĪíĥĢê¹Į ìļ´
íĵ¨ íĦ°
ĠëŁ °
Ġ g
ìĸ´ ì§Ģ
ìĸ´ ìĹ¬
ëĿ¼ ê°Ģ
ìķĦ ëĭĪë
íķ´ ì£¼ê³ł
ë¶ Ļ
ìĥģ ìĿĺ
ìľ¼ë¡ľ ë§Į
Ġìĸ´ ì§Ģ
ê°ģ ë³¸
ìłľ ìĿ¼
ĠìĹ°ê¸° ìŀĺ
Ġìľ Ħë¡ľ
ê°ľ ëĬĶ
ĠìĥĿê°ģ íĸĪëĬĶëį°
ĠìĿ¸ ëıĦ
ìĹĪëĭ¤ ëĬĶ
ë²Ħ ëł¤
ĠìĤ¬ ê³ł
Ġìŀ¬ë¯¸ìŀĪ ìĹĪìĸ´ìļĶ
ĠìĤ¬ëŀĳ ìĿĢ
ê²½ ì°°
ìĿ´ëŁ° ê±°
Ġìĸ¼ ë§Ī
ëĤĺìĺ¤ ê³ł
Ġìļķ ë§Ŀ
Ġëĭ¬ ëĭ¬
ë¯¸ëĦ¤ ìĿ´íĦ°
´ íĵ¨íĦ°
Ġ ãħĩ
ì§Ģ ë§Ĳê³ł
ê°Ģ ìĿĺ
ê¸° ìłĦìĹĲ
ëĤĺ ìģľ
ë¦¬ ìļ°ëĵľ
ìłĲ ìĹĲìĦľ
ìłĲ ë§ĮìłĲ
ìļ° ìĹ°íŀĪ
ìķ¼ íķł
ê³¼ ìĦľ
Ġê°Ģ ë©´
Ġê°Ģ ë²¼
ìĨĮ ë£¡
Ġëĵľ ë¦¼
ëħĦ ìŀĳ
Ġë§İ ìķĦìĦľ
Ġìĭł ë¹Ħ
ĠëĦĺ ê²Į
ĠíĶ ½
Ġì½Ķ ëĤľ
Ġë°° ìĹŃ
Ġë§¤ëł¥ ìĿĦ
Ġì§ĳ ì°©
Ġëª¨ëĳĲ ê°Ģ
ëıĪ ìĿ´
Ġëĵ± ëĵ±
ë§Įíģ¼ ìĿĢ
Ġì§Ī ë¦¬ì§Ģ
ê·Ģ ìĹ¬
ĠëłĪ ìłĦëĵľ
ĠëĨĵ ê³ł
Ġì´Īë°ĺ ìĹĲ
ìĹī ìĦ±
ì§ §
ëį° ìĿ´
ëĦ Īë
ĠìķĦ ì¤Įë§Ī
ìĺ Īë
ìĥ Īë¡
ìĺģíĻĶ ìŀħëĭĪëĭ¤
ë² Ĺ
ìŀ¥ íķľ
Ġê² ª
ëĵľ ë¡ľ
íĨ °
ë¶Ģ ê°Ģ
ìłĢ ìĺĪìĤ°
ë¹ Ĺ
ì¡° ìłĪ
Ġì¹ Ń
Ġê±° ê¸°ìĹĲ
ì¤Ħ ìĿ´ìķ¼
ëĭĺ ëĵ¤
ĠìĤ´ ë¦°
ê²° íĺ¼
ìĽł ì§Ģë§Į
ĠìĨĲ ë°ľìĿ´
Ġëį° ë¦¬ê³ł
ëįķ íĻĶ
ìĿ¸ì¤Ħ ìķĮ
íģ¬ë ¡ľ
ĠìŀĶìĿ¸ íķľ
ë¹¨ ë¦¬
Ġê·¸ëħĢ ìĿĺ
ëª°ìŀħ ëıĦ
ìĸ´ëĶĶ ìĦľ
Ġë± Ģ
Ġ p
Ġì ¸
ìĹĲ ëĮĢ
ìĭľ ë©´
ìľ¼ ë¦¬
ë² ĪëįĶ
ìŀĪ ìĬµëĭĪëĭ¤
Ġíķľ ëªħ
ëĵľ ë¦¼
ĠìłĦ ìľ¨
ëłĪ ìĿ¸
Ġì£¼ ê¸°ëıĦ
ë¹Ħ ìĬ·
Ġë¹Ħ ë°Ģ
íĭ ¸
ìłģìĿ´ ì§Ģ
ìµľê³ł ìµľê³ł
ĠìĿĺ ìĻ¸ë¡ľ
ìĺĪ ê³łíİ¸
Ġëĵ¤ ê³ł
ë°°ìļ° ìĿĺ
ì© Ŀ
ĠìĹ¬ìŀĲ ìĿĺ
ãħľãħľ ãħľãħľ
Ġìĵ° ê³ł
Ġë¶Ģë¶Ħ ëıĦ
Ġëĭµëĭµ íķĺê³ł
íķĺíķĺ íķĺ
Ġìĸ´ìļ¸ ë¦¬ëĬĶ
Ġìı ĺ
ìĿ´ ìĺĢëĭ¤
ìĿ´ ìĹĪìĿĮ
íķĺ ë£¨
íķĺ ê¸¸
Ġìķ ī
ĠìĿ´ ìĹ°ê±¸
ëĭĪ íį¼
Ġë³´ ëĭ¤ëĭĪ
ìĥ Īë¡ľ
Ġê·¸ ìŀĲì²´
ê±° ëĵł
ìŀĲ ë¡ľ
ì§ľ ë¡ľ
Ġë§Į ëĤ¨
ìŀ¬ë ¥¼
ê²ł ëĭ¤ëĬĶ
Ġë³´ê³ł ëĤĺë©´
ĠìĿ¼ ê¹¨
ĠëŃĲ ëĿ¼
ë°Ķ ìĿ´
ìĿ¸ëį° ëıĦ
ĠìķĦëĭĪ ìķ¼
ì½Ķ ë©ĶëĶĶ
ì© Ĳëĭ¤
ìĽł ìĸ´ìļĶ
........ ..
Ġì£¼ìĿ¸ê³µ ìĿĢ
Ġë³´ê¸° ìĹĲëĬĶ
Ġë§İìĿĢ ëį°
Ġëĸ¨ìĸ´ ì§Ģê³ł
ĠíĿ¥ë¯¸ ë¡ľ
ĠìĤ´ìķĦ ê°ĢëĬĶ
Ġìĭľë¦¬ì¦Ī ëĬĶ
Ġë§Įëĵ¤ìĹĪ ëĬĶì§Ģ
ìķĦë¦Ħ ëĭµ
Ġìĸ´ì©Ķ ìĪĺ
Ġê³µíı¬ë ¬¼
Ġíļ¨ ê³¼
íĻĶëł¤ íķľ
v d
Ī ìĿ´
ľ ©
ìĿ´ ìĺģíĻĶê°Ģ
ĠìĺģíĻĶ íĻĶ
ĠìĺģíĻĶ ë³´ëĬĶ
ëį ´
ëĬĶëį° ëıĦ
Ġë´ ī
ìłģ ìŀĦ
ê·¸ ëħĢ
Ġë´¤ ìĿĦê¹Į
Ġê°Ģ ì§Ģ
ë¶Ģ ë¡ľ
Ġìľ ¡
Ġë¬´ ìĪł
ĠìĥĿê°ģ íķł
ìĺĢ ìĸ´
ë¹ Ľ
Ġíķ´ ìĦĿ
ĠìĽĥ ê²¼
Ġì°¸ ìľ¼ë¡ľ
ëŃĲ ê°Ģ
ĠíĺĦìĭ¤ ìĦ±
íıī ë²Ķ
Ġëª°ìŀħ ê°Ĳ
Ġìľłì¹ĺ íķ¨
ë°Ľ ê³ł
Ġê¸¸ ê²Į
ĠìĦ¸ìĥģ ìĿĦ
ĠìķĦë¦Ħëĭµ ê²Į
ìĭ¸ ìĽĢ
Ġì§Ħë¶Ģ íķĺê³ł
ĠíĮ¨ ëŁ¬ëĶĶ
Ġì¢ĭê²ł ëĦ¤ìļĶ
Ġì¿ ł
Ġê°ĲìłķìĿ´ ìŀħ
a s
c g
Ĩ ĵ
Ġë ĳ
ãħ Ĭ
ì§Ģ ê¸Īë´ĲëıĦ
Ġìŀ ĪëĦ¤
ĠìĿ´ ëŁ´
ìĸ´ ë²Ħë¦°
ëĭĪ ê°Ģ
ìķĦ ëĵ¤
ìĿ¸ ëĵ¤ìĿĺ
êµ īìŀ¥íŀĪ
íķ´ ì§Ģê³ł
Ġê·¸ ë§Įíģ¼
ìĬ¤ íĤ¤
ìłķ íĻĶ
ìļ° ê°Ģ
ìĥģ ëĭ¹íŀĪ
Ġìĭľ íĤ¤
Ġê¸° ë°ľ
êµŃ ìĺģ
ĠìĥĿê°ģ ìľ¼ë¡ľ
Ġê°ľ ë§īìŀ¥
ëĲĺ ë©´
Ġì¡° ìŀ¡
Ġë´¤ëĬĶëį° ëıĦ
Ġíķł ë¨¸ëĭĪ
Ġì£½ ìĿ´ëĬĶ
ìĺĪ ìłĦ
íĮĲ íĥĢì§Ģ
Ġë¬ µ
ĠìĪ ł
ĠëıĻ ìĭľìĹĲ
ĠìĿ´ê±° ë³´ê³ł
ĠëıĪ ìĿĦ
ìĽł ìĬµëĭĪëĭ¤
ĠìĿ´ìĥģ ìĿĺ
íĽĪ íĽĪ
Ġíķľë²Ī ëıĦ
íķľêµŃ ìĺģíĻĶ
Ġëħ¸ëŀĺ ëıĦ
íķ´ìķ¼ ì§Ģ
Ġë³Ģ íĥľ
ĠëŃĺ ê¹Į
ĠìŀĲìĭł ìĿĦ
ĠëĵľëĿ¼ë§Īë Ŀ¼
ĠíĮ¬ ìĿ´
ëĮ Ħ
Ġìľłëªħ íķľ
¤ ì¼Ģ
Ġ =
Ġ y
ëĬĶ ëĵ¯
ê°Ģ ëĦ¤
ĠìĺģíĻĶ ìĿ¸ê°Ģ
ìĸ´ ê°ĢëĬĶ
ĠìķĦ ëıĻ
ìłĲ ì£¼ê³ł
Ġëĭ ĺ
ìĥģ íķľ
ìĺ¤ ë¸Į
ëħ ķ
Ġìĸ´ ëĳĲ
Ġì§Ģ ëĤ¬
ëĥ Īëĭ¤
Ġìĭľ ê±¸
ĠìĬ¤ íĮĮìĿ´
ì¹ĺ ëħ¸
íĸĪ ì§Ģ
Ġëª¨ íĹĺ
Ġë³¸ ê²Į
ë¹ ¡
Ġê°ĲëıĻ ìĿĺ
ë¦¬ë Ħ¤ìļĶ
Ġì¡° ìłĪ
Ġëĭ¤ìĭľ ëĬĶ
ĠìĤ´ ëĭ¤
ĠíķĺëĤĺ ë¡ľ
ĠìĺĪ ê³ł
ê²¨ ìļ¸
íĶ¼ ìĬ¤
ĠìĿ´ê±´ ëŃĲ
ĠìķĦê¹Į ìĽłëĭ¤
Ġê¹Ģ ê¸°ëįķ
Ġìĭ¬ ì§Ģìĸ´
ìĹĩ ëĬĶëį°
ìŀ¬ë¯¸ìŀĪ ê³ł
Ġëªĩ ë²ĪìĿĦ
ĠìĹ°ê¸°ëł¥ ìĿĢ
Ġì¹ĺ ë°Ģ
ìĵ° ê³ł
ĠìĿĺë¯¸ ê°Ģ
Ġëĭµëĭµ íķľ
ì¡¸ ëĿ¼
ê°ĳ ëĭĪëĭ¤
ê±°ê°Ļ ìķĦìļĶ
ĠìĿĢ ê·¼
ëļ Ŀ
Ġëıĭë³´ ìĿ´ëĬĶ
Ġê²¨ ìļ¸
ë¬ĺ íķľ
ĠëĤĺë¨¸ ì§Ģ
ĠìłĦë¬¸ ê°Ģ
ë¢° ë§¤
ë· Ķ
u t
Ġ ;
Ġë ¥¼
íĻĶ ìĿ´íĮħ
Ġí ľĺ
ìłĲ ìľ¼ë¡ľ
ìĭľ ìĺ¤
ìŀĲ ìĻĢ
ìĹĨ ê²Į
Ġíķĺ ê¸¸ëŀĺ
ì¹ Ń
ìŀĳ ìĿĢ
íĥ ĳ
Ġìŀ¬ë¯¸ ìĻĢ
Ġê°Ģ ê³ł
Ġê°Ģ ë¥´
íķĺëĬĶ ê²ĥ
ëŀĺ ê³¤
ì¤ĳ ìĹĲìĦľ
Ġì£¼ ê¸°
ëķĮ ë¬¸
ëĵł ì§Ģ
Ġë³¸ ê±°
ĠìĿ´ëŁ° ìĺģíĻĶë¥¼
ìĭ¬ ìľ¼ë¡ľ
ĠìĬ¤íĨłë¦¬ ìĿĺ
Ġì¤ĳ ìĹĲìĦľ
Ġê±° ë¶Ģ
Ġìĺģ êµŃ
ìľĦ ìĹĲ
ë´Ĳ ì£¼
Ġë¶Ħ ëĵ¤ìĿ´
ĠëıĦ ë§Ŀ
Ġìŀ¥ë©´ ëıĦ
Ġëªħìŀĳ ìĿĦ
ë³µ ìĿĦ
Ġêµ¬ ìĦ±ìĿ´
ĠëĲ ©ëĭĪëĭ¤
ĠëĤ® ëĦ¤
íıī ìĿ´
ëĬĶê±° ìķ¼
Ġë³´ì§Ģ ë§ĪëĿ¼
ĠìĨĲ ìĹĲ
ĠëĶĶ íħĮìĿ¼
ê±´ê°Ģ ìļĶ
Ġê´ľì°®ìĿĢ ëį°
ĠìĿ½ ìĸ´
Ġì§ĢëĤĺ ì¹ĺê²Į
ł ìłģìľ¼ë¡ľ
ëĬ ¦ê²Į
ì§Ģ ëĦ¤
ëıĦ ë¥¼
ĠìĹ ł
ëĤĺ ëĭĪ
ë³´ ìĺģ
ìĽ ĶìĿ´
íķĺê³ł ìĭ¶
ê·¸ ëŁ¼
ê²ł ì£ł
ìķħ íķľ
ĠìŀĲ ìĭĿ
Ġìľł ì§Ģ
ì¢ĭ ëĦ¤ìļĶ
Ġê°Ĳ ìķĪ
Ġìĺģ ìĸ´
Ġìĺģ íĸ¥
!!!! !!
íĭ° ì¦Į
ĠìĿ´ìķ¼ê¸° ëĬĶ
Ġë³Ħë¡ľ ê³ł
Ġìĭ¬ íķĺê²Į
ëĵ± ìŀ¥
ë°Ľ ëĬĶ
ìĤ¬ë ¡ľ
ĠìĥĿ íĻľ
Ġë°ĺìłĦ ìĿĢ
Ġë°Ľ ìĿĢ
Ġìĵ° ëĬĶ
ĠìĶ ¹
ëĪĦ ëĤĺ
Ġëį° ìĿ´
ĠíĽĮë¥Ń íķĺëĭ¤
Ġë¬´ìĦľ ìĽĮ
ë¶Ģë¶Ħ ìĿ´
ĠíĻķ ìĭ¤
ìłľëª© ìĿ´
ĠêµĲíĽĪ ìĿĦ
Ġë³¼ìĪĺ ìŀĪëĬĶ
ìĭ« ìĸ´
ëĵľëĿ¼ë§Īë ¥¼
ĠìĺģìĽĲ íŀĪ
ĠD VD
Ĺ Ħ
ê¸° ê¹Įì§Ģ
ìłĲ ìłĲ
ìĭľ ë¦¬
ë³´ ìĿ´ëĬĶ
Ġ1 3
íķĺëĬĶ ìĺģíĻĶ
ĠëĮĢ ì¤ĳ
íĸĪ ìĹĪëĬĶëį°
ĠìķĪ ìĬµ
ê°ľ ê°Ģ
Ġëª» íķĺëĭ¤
Ġìķł ëĵ¤ìĿĢ
ê¸´ íķĺì§Ģë§Į
ĠìĽĥ ê³ł
Ġìŀ¬ë¯¸ìĹĨ ìĹĪëĭ¤
ë°Ķ ëŀĮ
íĹ Īë¬´
ĠëķĮ ëł¤
ëĬĲ ê»´
Ġëªħìŀĳ ìŀħëĭĪëĭ¤
ì© ľ
Ġìŀ¼ ëĤĺê²Į
ìĥĿê°ģ ìĿ´
ĠìŀĪëĭ¤ ëĭĪ
Ġì§ľì¦Ŀ ëĤĺìĦľ
íĪ ¬ë¦¬
Ġì§ĳ ìĹĲ
Ġê²°ë§Ĳ ìĿĦ
Ġëĭ´ ìķĦ
ĠìĤ¶ ìĹĲ
ìĺ¬ íķ´
ìŀĸ ìķĦìļĶ
Ġë²Ķ ìĿ¸
Ġì£¼ìłľ ë¥¼
Ġìĥī ëĭ¤ë¥¸
ãħħ ãħĤ
Ġíĺ¹ ìĿĢ
íĢ ´
ĠìĨĮì¤ĳ íķľ
ĠëĤĺìģĺ ì§Ģ
íĮ© íĬ¸
ë ī´
ìĿ´ ìĸ´
ìĸ´ íľ´
ĠëĤ Ń
ë§Į ëıĦ
ëĿ¼ ìĿĺ
Ġë³´ ëįĺ
ìĭľ ì¹´
Ĳëı Ļ
Ġì° °
ĠëĮĢ ìĤ¬ëĵ¤
íĸĪ ìĿĦëķĮ
íĮ ł
ì¤ĳ íĽĪ
Ġë¬´ ë¦¬
ë¶Ħ ìĿĺ
ĠëĤ¨ ëĦ¤ìļĶ
Ġìľł ë°ľ
ĠìĤ¬ ì§Ħ
íĶĦ ëĭĿ
Ġìĭľê°Ħ ê°ĢëĬĶì¤Ħ
íĽĦ ìĿĺ
Ġê°ķ íķľ
ìĽĥ ê¹Ģ
Ġìĭ¬ ìĺ¤
ëĵľëĿ¼ë§Ī ëĬĶ
ĠëĤ® ì§Ģ
Ġìłģ ìłĪ
ĠìķĦìī½ ì§Ģë§Į
ĠíĿ¥ë¯¸ ë¡ľìļ´
ĠìĽĥê¸° ì§ĢëıĦ
Ġìĸ´ìĥī íķĺê³ł
ì»¤ íĶĮ
ê¹Ĭ ìĿĢ
Ġì¶Ķìĸµ ìĿ´
ê°ĳ ìŀĲê¸°
Ġì§ĳì¤ĳ ìĿ´
íķĺìŀĲ ëĬĶ
ë¿ Į
5 0
Ġ 007
ìĿ´ ìĹ°ê±¸
íķĺ ëŁ¬
ê°Ģ ìĹĲ
ĠìĹ ½
Ġë§ ¹
ìĸ´ ëĤľ
ìķĦ ì¹ĺ
ĠìķĦ ìĹŃ
ĮĢ ìĿĺ
ìĭľ ê±¸
ìļ° ìļ¸
ìĪĺ ë¡ľ
ìĪĺ ìŀĳ
ìĥģ ìĪĺ
ãħł ãħľ
Ġìĸ´ ëĳ
Ġë´¤ ëĦ¤
ë¶Ģ ë¥¼
ĠìĪĺ ìŀħ
ë¶Ħ íķľ
ìĦ¸ íı¬
ê°Ĳ ìĤ¬
Ġê°Ļ ê³ł
Ġìµľê³ł ìĺĢëĭ¤
íİ¸ ì§ĳ
ìĺĢ ëĦ¤
ìĺĢ ìľ¼ë©´
Ġë³¼ ê±°ë¦¬
ìłĢ ëŁ°
ìĦł ìĿĦ
Ġìĭ¶ ìĸ´ìļĶ
íĺĦ ìŀ¬
íıīìłĲ ìĿĢ
ê°ĻìĿĢ ìĺģíĻĶ
ĠìķĦëĭĪ ì§Ģ
ì¦Ī ìĿĺ
Ġë§Įëĵł ìĺģíĻĶ
ĠìĿ´ìĥģ íķĺê²Į
ë¹ł ì§Ħ
ìŁģ ìĿ´
Ġëĭ´ ê²¨
Ġë²ł ëĵľ
Ġê°ĳ ëĭĪëĭ¤
Ġìĸĳ ìĭ¬
ëĬĲëĤ ĮìĿ´
íĸĩ ëĭ¤
Ġìĸ´ëĬĲ ìłķëıĦ
Ġì²« ìĤ¬ëŀĳ
Ġì°© ê°ģ
Ġìĭľì²Ńë¥ł ìĿ´
Ġë¿ Į
- ^
° Ķ
ì Į
ãħ ĵ
ìĦ ¬
ëıĦ ìķĦëĭĪê³ł
ĠìĺģíĻĶ ìĻĢ
ĠìķĦ ê¸°
ê¹ ľ
ë§Ī ì¹ĺ
Ġíķĺ ëĭ¤ê°Ģ
ìŀĪ ìĿĦ
ì° ¡
ìĦ± ê¸°
Ġìŀ¬ë°Į ëĭ¤ëĬĶ
Ġê°ĲëıĻ ìĿĢ
Ġê°ĲëıĻ ìłģìĿ´ëĭ¤
ë°ķ íķľ
ëĤ¨ ì£¼
íĹ Ĳë¦¬
ĠìĺĪ ëĬ¥
ëĬĲ ëģ¼
ĠëĳĲ ë²Īì§¸
ĠíĻĶ ëģĪ
ĠìłĲ ìĪĺê°Ģ
ĠëĤ® ìķĦ
Ġë§¤ëł¥ ìłģìĿ´
ìĬ¤ëŁ½ ì§Ģ
ìŀ¬ë¯¸ìŀĪ ìĿĮ
ĠìķĦëĭĪëĿ¼ ê³ł
Ġìŀ¬ ëĬ¥
Ġë³´ì§Ģ ë§Ĳ
ì´Ī ìĹĲ
ĠìĨĲ ìĥī
ìĹ¬ìŀĲ ê°Ģ
ìĬ¬ íĶĦ
Ġìĸ´ìĦ¤ íĶĦê³ł
ëĿ¼ìĿ´ ìĸ¸
Ġê´Ģê°Ŀ ìĿĦ
Ġê¶ģê¸Ī íķĺëĭ¤
ë°ĺìłĦ ìĿ´
ĠìĹīìĦ± íķĺê³ł
Ġs f
Ġì½ ľ
Ġìĭ¤ìłľ ë¡ľ
ĠíĹ¤ ìĸ´
ìĻł ì§Ģ
ĠìĹŃëĮĢ ê¸ī
? ...
e s
± ìłķ
Ġ E
ì§Ģ íĺĦ
ìľ Ī
ìĬ¤ ìĹĲ
Ġìĺ ¥
Ġìĺ Ľ
ìĹ¬ ì§Ħ
ìĿ¼ ìĿĦ
ìĿ¼ ëĵ¯
íķ¨ ëıĦ
ĠìķĬ ìķĦìĦľ
Ġë¬´ íķľ
ĠëĤ´ìļ© ê³¼
ì¡° ìĹ°
ĠìľĦ ëĮĢ
ë°© ê¸Ī
ĠìĹĲ íľ´
Ġë³´ê¸° ìĹĲ
ĠëĨĴ ìķĦìĦľ
ì£¼ìĿ¸ê³µ ìĿĺ
ìĸ¼ ë§ĪëĤĺ
Ġëªĩ ëªĩ
ìĸ´ìķ¼ ì§Ģ
Ġì¦Ĳ ê²¨
ĠêµĲ ê³¼ìĦľ
Ġëª© ìĪ¨
Ġíĺķ ëĭĺ
ĠìĽĥê¸° ëĭ¤
Ġë¬´ìĦŃ ì§ĢëıĦ
ĠíĻķ ìĿ¸
Ġì°¾ìķĦ ë³¼
Ġì§ĳì¤ĳ íķ´ìĦľ
Ġë¸Ķ ë¡Ŀë²ĦìĬ¤íĦ°
ëĨĴ ìĿĢ
ĠìĺģíĻĺ ëį°
Ġëĭ¤ìĸĳ íķľ
² Ī
í ĩ´
ëĭ ¬ë
ìł Ĭ
ëı ĮìĿ´
íķĺ ëįĶëĿ¼
ĠëĤ ¬
Ġë³´ ìķĺëĬĶëį°
ë©´ ìĹĲìĦľ
ë° į
ìłĦ ìĦ¤
ĠìŀĪ ëĭ¤ê³ł
Ġì§Ģ ê¸Īë³´
Ġíķľ ëĭ¤ëĬĶ
ì¹ĺ ê³¤
Ġì£¼ ë§Ĳ
ê°Ļ ìķĦ
Ġë§Ĳ ìķĺ
Ġë³¼ ëķĮ
Ġì¡° ìļ©
ëĨ į
íķĺì§Ģ ë§ĪëĿ¼
Ġê²° ì½Ķ
ĠëĤĺìĺ¤ ëĦ¤
ĠìķĦê¹Ŀ ê³ł
ì¼ °
Ġì§ľ ì§ĳ
ĠëĳĲ ëł¤
ĠìĿ´ìĥģ íķĺê³ł
ĠëĤ® ëĭ¤
ĠìĦł ëıĻ
ĠìŀĶ íĺ¹
Ġê°ĢìĬ´ ìĿĦ
ì¢ĭìĿĢ ëį°
ìŀĩ ëĬĶ
Ġìĭ¸ ìļ°ëĬĶ
ìĹ¬ë Ł¬
ëĤ¸ ëĭ¤
Ġìĸ´ìĦ¤ íĶĦ
ëĺĲ íķľ
Ġëª°ìŀħëıĦ ê°Ģ
ĠìķĪëĲ ł
ìķŀ ìľ¼ë¡ľ
ë¹¼ ê³ł
ĠìĬ¤íĬ¸ ëłĪìĬ¤
ĠìĿ¼ê¹¨ ìĽĮ
ìĿ´ ìłł
ë§ Īë¬´
ê³ł ìĥĿ
Ġí ĮĢ
ë¡ ¤
ìĺ ¬ëĿ¼
ë§Ī ê°Ģ
ìĹĪ êµ¬ëĤĺ
Ġëĭ¤ ìĦ¯
ìĪĺ íĺĦ
ìŀ¥ ìĿĺ
ëĵľ ë¦¬
Ġ1 1
Ġìŀ¬ë°Į ìĸ´ìĦľ
ê°Ļ ìķĦìļĶ
ìŀ¬ë¯¸ ìĹĨê³ł
ëıĻ íĻĶ
ĠëŃĲ íķĺëĤĺ
ìĨį ìľ¼ë¡ľ
ë§Īë ¥¼
ìĹ°ê¸° ë¥¼
Ġëª° ëŀĲëĭ¤
ĠìĿ´íķ´ ë¥¼
ĠëĺĲ ëĭ¤ë¥¸
Ġê´Ģ ëł¨
ĠìľĦ íĹĺ
Ġì§ľì¦Ŀ ë§Į
ì£½ ëĬĶ
Ġìĸµì§Ģ ìĬ¤ëŁ¬ìļ´
ĠëĤĺìĻĶ ëĭ¤
ìŀ¬ë°ĭ ê²Į
ìŀ¬ë°ĭ ìĸ´ìļĶ
Ġìĸ´ì© ľ
ĠíĮĲ ëĭ¨
ĠëıĮìķĦ ê°Ģ
ëªĩ ë²ĪìĿĦ
Ġë§ĲëıĦ ìķĪëĲĺëĬĶ
ëİ ħ
Ġë°Ģ ëł¤
ë©ĶìĿ´ ëĵľ
ĠìĹ°ìĺĪ ìĿ¸
Ġìĸ´ìļ° ëŁ¬
e st
íķĺ ê±°ëĤĺ
íķľ ìĭ¬
íķľ ê°ľëıĦ
ĠìĺģíĻĶ ë§Į
ĠìĹ ¬ë¦Ħ
ìĿ¸ ê±´
ĠìķĦ ëĤĺ
ĠìķĦ ëĤ´
ìĭľ ê°Ģ
Ġìłķ íĻķ
ê·¸ ëĭ¥
Ġìĭľ ëģĦ
ìĿ¼ ìĿĺ
ìĤ¬ ìĻĢ
ìĭł ê³ł
Ġìŀĺ íķĺëĬĶ
íĬ ľ
Ġë¶Ģ ë¥´
Ġì¡° ìĦł
ìķł ëĵ¤ìĿĢ
Ġëªħ íĻĶ
Ġìŀ¬ë¯¸ìĹĨ ìĸ´ìĦľ
ê²½ ìĿ´
íĮĲ ìĿ´
ĠíĸĪ ìĿĮ
ìĤ´ ìķĦ
Ġë³Ħë¡ľ ìŀĦ
ì°¸ ê³ł
Ġëª¨ëĵł ê±¸
ì¢ħ êµĲ
ì²ĺìĿĮ ìľ¼ë¡ľ
íĮ¨ ìĬ¤
Ġìŀ¬ë°ĭ ëĭ¤
Ġëħ¸ëŀĺ ê°Ģ
Ġìŀĳê°Ģ ëĭĺ
Ġì© Ŀ
Ġë¹µ ë¹µ
ĠìĺĪìģĺ ëĭ¤
íŀĺ ëĵ¤
Ġíķľìĭ¬ íķľ
ª¨ ë¡ľ
ĠíĽĪíĽĪ íķľ
Ġëıħë¦½ ìĺģíĻĶ
ì¨ Į
Ġê·¸ë¦½ ëĭ¤
ĠìĹĲíĶ¼ìĨĮ ëĵľ
Ġ e
ìĿ´ ê²ĥ
ë© ¸
Ġê·¸ ëŀ
ìľ¼ ëł¤ê³ł
ìŀĲ ê¾¸
ĠìĹĨ ê²Į
ĠìĹĨ ìĹĪìĿĮ
ĠëĮĢ ëĨĵê³ł
êµ¬ ê°Ģ
Ġë¬´ ë£Į
ĠëĬ Ķ
Ġíĺ Ĳ
Ġìĺ¤ ë¹ł
ĠìĤ¬ëŀĮ ëıĦ
ĠëĲĺ ëĦ¤ìļĶ
Ġìĭ¶ ì§Ģ
ì¤Ħ ìĿĢ
Ġê²° ìłķ
ë¶ĢíĦ° ê°Ģ
ìĭľê°Ħ ìĿĦ
ĠìĹ°ì¶ľ ìĿĢ
Ġì§ľ ìŀĦìĥĪ
Ġìŀ¥ë©´ ìĿĦ
Ġê´ľì°® ìķĺëĭ¤
ìĻĶ ëĬĶëį°
Ġë§ĪìĿĮ ìľ¼ë¡ľ
ëĤ´ê°Ģ ë³¸
Ġì§ľì¦Ŀ ëĤ¨
íĪ °
Ġë´¤ëĭ¤ ë©´
Ġëĸ¨ìĸ´ ì§Ĳ
ìµľê³łìĿĺ ìĺģíĻĶ
ĠíĥĢ ê³ł
ìĿĮìķħ ìĿ´
íģ¬ë ł
Ġëķ ľìĹĲ
Ġëĭ¤ë¥´ ê²Į
Ġë¹µ íĦ°
Ġë§ĪìĿ´ íģ´
Ġëģ¼ ìĽĮ
ì į¼
Ġ P
ëĭ ·
íķ Ģ
ê° ĪëķĮ
ìĹĲ ìĿ´
ĠìĺģíĻĶ ìĿ¸ì§Ģ
ĠìĿ´ ìłķ
ìĸ´ ìļ©
ëĿ¼ ëħ¸
ëł ´
ĠìķĦ ëĥĲ
Ġìłķ ìŀĳ
ë¶Ģ ìĿĺ
ĠìĥĿê°ģ ëıĦ
Ġêµ ´
ëĵ¤ìĿ´ ëĤĺ
ĠìŀĲ ëŀĳ
ĠìķĮ ê²łëĭ¤
ìĺģ ìĽħ
Ġë°°ìļ° ëıĦ
ì§ģ íķľ
Ġê°Ĳ íŀĪ
ìŀ¬ë°Į ëĬĶ
Ġìŀ¬ë¯¸ìĹĨ ìĸ´ìļĶ
ë¯¼ ìĿ´
ê·¹ ìĿĦ
ë³¼ ëķĮë§Īëĭ¤
ìĽĥ ê²¨
Ġë§ŀ ì¶°
íĹĪ íĹĪ
Ġãħĭãħĭãħĭãħĭ ãħĭãħĭ
ĠìķĦê¹Įìļ´ ìĺģíĻĶ
Ġì¶ľìĹ° íķľ
ĠìĿ½ ê³ł
ãħĭãħĭãħĭãħĭãħĭãħĭãħĭãħĭãħĭãħĭãħĭãħĭãħĭãħĭãħĭãħĭ ãħĭãħĭãħĭãħĭãħĭãħĭãħĭãħĭãħĭãħĭãħĭãħĭãħĭãħĭãħĭãħĭ
ëĪĪë¬¼ ìĿ´
ìĭ« ëĭ¤
ê¸°ìĸµ ìĹĲ
ìº ¬
ê·¸ëŁ¬ ëĤĺ
ĠìĿ´ëĶ° ìľĦ
ĠíĶĮ ë¡¯
ë¡ľë§¨ ìĬ¤
ĠìķĦë¥ĺ ìŀĳ
ì ·
ëĭ ĪëĿ¼
ìĿ´ ìĹ¬
ë§Į íķĺëĭ¤
ë¦¬ ìĻĢ
Ġìł ł
ë© ľ
íķ´ ìĦł
Ġë³´ íĨµ
Ġëª ¬
ìľ¼ ìĭł
ĠëĦ Į
ì¹ĺ ì§Ģ
ë¶Ģ ëª¨
Ġë³¸ ê±´ëį°
ĠëĤ¨ ê¸°
Ġê²ĥ ìĹĲ
ìĹĪëĭ¤ ê³ł
Ġë¹ ħ
ìŀ¬ë¯¸ ìŀĪëĬĶ
Ġìŀĳ ìľĦ
Ġë¶Ģ íĥģ
ĠìķĪë ´
ĠíĹ Į
Ġê³ł ë§Ļ
Ġë§¤ ìĿ¼
ìĭĿ ìĿĢ
Ġìķ¡ìħĺ ìĿĦ
Ġì¶Ķ ê²©
ì°¨ ë³Ħ
Ġê´ľì°® ìĿĮ
íĺķ ìłľ
ìŀĺ ë´¤ìĬµëĭĪëĭ¤
ìĹĩ ìĿĮ
ìķĪë Ĳľ
ìĥĿê°ģ ìĿĦ
ĠìķĦìĿ´ ê°Ģ
Ġë°Ľ ëĬĶ
Ġë³µ ìŀ¡
ĠìĺģíĻĶëĿ¼ ëĭĪ
ìĭľëĮĢ ë¥¼
ë³´ì§Ģ ë§ĪìĦ¸ìļĶ
íķĺì§ĢìķĬ ê³ł
ëĶ°ëľ» íķľ
ĠìľłìĿ¼ íķľ
Ġê²¬ ìŀĲëĭ¨
ìĩ Ħ
Ġ n
ħ Ģ
ëį ¸
ë¡ľ ì§Ģ
... ^^
ìĿ¸ ì§ĢëıĦ
Ġëĭ ¬ëł¤
ìĽ ¬
ë§Ī ìŀĲ
ĠìĹĨ ëĤĺìļĶ
ì£¼ ê¸°
ìĥģ ìĿĢ
ĠìķĪ ê°Ħëĭ¤
ê¹Įì§Ģ ëıĦ
Ġë¯¸ ìĬ¤íĦ°
ĠìĤ¬ëŀĮ ëĵ¤ìĹĲê²Į
ì¢ĭ ê²Į
Ġê³µ ê°Ħ
ĠëĤ´ìļ© ìĿ¸ì§Ģ
ì¤Ħ ê±°ë¦¬
ĠìĤ´ ë©´ìĦľ
Ġìŀ¼ ìŀĪëĭ¤
ì½ §
ĠìĦľ ë¶Ģ
ìŀ¡ ìĿĦ
ëĬĶê±° ì§Ģ
Ġê·¹ìŀ¥ ê°ĢìĦľ
ìķ¡ìħĺ ìĿĢ
Ġëĭ´ ë°°
ĠìķĦìī¬ ìĽĢìĿ´
ĠìĺģíĻĶìĺĢ ìĿĮ
ĠëĤļ ìĭľ
Ġê¿Ī ê¾¸
ëª¨ë¥´ ê³ł
Ġë¹ĦëĶĶìĺ¤ ë¡ľ
Ġìķķ ëıĦ
ì¤¬ ìľ¼ë©´
ìĻł ë§Įíķĺë©´
Ġì¤ĺ ìķ¼
Ġëĭ¤ìļ´ë°Ľ ìķĦ
ĠíķĺëĤĺíķĺëĤĺ ê°Ģ
Ġë¥ĺ ìĬ¹
ĠìĬ¬íİ Ĳ
h t
¡ íĮ¨
Ġ L
ëĭ ¼
ìĸ´ ìĿĺ
ë¡ľ ìį¨
ëĿ¼ ëĿ¼
ë¦¬ ëĤĺ
Ġë³´ ëĤ´
ìłķ ê³¼
ìłĦ ìĿĦ
ê·¸ ëķĮ
ìĬµ ëĭĪê¹Į
ëŀĺ ëıĦ
Ġìŀ¬ë°Į ìĿĦ
Ġì¤ įëĭĪëĭ¤
ë¶Ħ ìĿĦ
ìĦ¸ ìĹ¬
ê°Ĳ ìłķ
Ġë³¸ ë°©ìĤ¬ìĪĺ
ĠëģĿ ëĤ¬
ë§Ŀ ìŀĳ
Ġê±° ë¶ģ
ì§Ī ìĿ´
Ġìĭľê°Ħ ìĹĲ
Ġëĸ ¼
Ġê·¹ ë³µ
Ġìļ¸ ë¦¬ëĬĶ
Ġëĭ¨ íİ¸
Ġì§ľì¦Ŀ ëĤĺê³ł
íĿ¬ ê°Ģ
ìķ¡ìħĺ ìĿ´
ĠëłĪ ìķĮ
Ġê·ĢìĹ¬ ìĽĮ
Ġìľłì¾Į íķĺê³ł
Ġë¶ĪìĮį íķĺëĭ¤
Ġë§Ľ ìĿ´
Ġo f
Ġìĺ¬ íķ´
Ġë§Ĳíķĺê³ł ìŀĲ
ĠëĨĢëŀį ëĭ¤
ĠìĿ´ë»Ĳ ìĦľ
Ġ >
ìĿ´ ìļĶ
ëĤ Ģ
ë¦ ĩ
ìĥ ĺ
ë³´ ëĤ´
ìļ° ìĿĺ
ìłĦ ìĿ´
Ġìłķ ì²´
ĠìĬ¤ íİĺ
ĠìĽ °
ĠìŀĲ ìĦ¸
ĠëĤ¨ íİ¸
Ġìĺ¤ ë¸Į
ë²Ħ ì§Ģê°Ģ
Ġë¶Ģ ìĭ¤
Ġ2 1
Ġê°Ĳ ê°ģ
Ġë°ĺ ëĵľìĭľ
ë°Ķ ë³´
ĠìŀĳíĴĪ ìŀħëĭĪëĭ¤
ĠëķĮ ë§Īëĭ¤
ì²ľ ìŀ¬
íĸĪëĭ¤ ë©´
ìĭľê°Ħ ëĤŃë¹Ħ
Ġë°° ìĭł
ì§ĳ ìĹĲ
ê°ĲëıĻ ìłģìĿ´ê³ł
ĠìłķëıĦ ë©´
ì¡Į ìĿĮ
Ġë°Ľ ê³ł
Ġìĺģìĥģ ê³¼
Ġë¨¸ ë¦¬ê°Ģ
ĠìĨĮìŀ¬ ëĬĶ
Ġëª¨ë¥´ê²ł ëĦ¤ìļĶ
ì¿ ¡
ìľ¤ ë°ľ
ĠíĿĲ ë¥´ëĬĶ
ĠëģĮ ê³ł
ĠìĿ´ë¦Ħ ìĿĦ
Ġì±ħ ìŀĦ
ĠíĥĪ ì¶ľ
íķ Ńìĥģ
ìĿ´ ìĹĲ
íķĺ ê·ł
ëĤ ©
ëĵ Ń
ìķĦ ë§Ī
ìĹĨ ìĿĦ
ĠëĤĺ ëĦ¤ìļĶ
Ġëĭ¤ ìĿ´
ìŀ¥ ìĭ¤
Ġëĵ ŃëĭĪëĭ¤
Ġì§Ģ ê²¹
íķł ë§Įíķľ
Ġëį ¤
ìĤ¬ ìĹĲ
Ġìŀĺ ë´¤ìĸ´ìļĶ
íĬ Ģ
ĠëĬ ¦
ĠìĿ¸ íĺķ
Ġê°ľ ëħĲ
ì¤Ģ íĺ¸
ë³´ëĭ¤ ëıĦ
ëįĶ ëįĶ
Ġìļ° ë¦¬ëĬĶ
ĠìĽĥ ìľ¼ë©´ìĦľ
Ġìĭ¤ ëł¥
ĠëıĻ ìĦ±ìķł
ëª» íķ´
Ġë§ī íĮĲìĹĲ
ĠìĦ¤ ìłķìĿ´
Ġë§Ŀ íķľ
Ġë§ŀ ì§Ģ
ĠìĦł ë¬¼
Ġì§ĳ ìĸ´
ê¸°ëıĦ íķĺê³ł
ĠìĹ´ ìĹ°
ê¸°ëĮĢ íķĺê³ł
Ġëĭ´ ìĿĢ
Ġì´Ī ëĵ±íķĻìĥĿ
ê´ĳ ê³ł
ĠëĤļ ìĺĢëĭ¤
Ġìĺ¤ëŀĺ ëĲľ
Ġëĭ¤ë¥´ ëĭ¤
Ġëĭ¹ìĭł ìĿĢ
Ġì§§ ìĿĢ
ĠìŀĬíĺĢ ì§Ģ
Ġê°ĢëĵĿ íķľ
ĠëģĶ ì°į
ĠëĿ Ħ
Ġ F
Ġ N
.. !
¬ë Ħ¤
ĠìĿ´ ë¯¼
ìķĦ ì¹¨
Ġê·¸ ëĵ¤
ìłĲ ë¶ĢíĦ°
Ġë° ĸ
ĠìĹĨ ìľ¼ë©´
Ġì¢ĭ ëĭ¤ê³ł
ì£¼ ë©´
ìŀĪ ì§Ģë§Į
ĠëĦĪë¬´ ëıĦ
ĠëĮĢ ìĭł
Ġìŀ¬ë°Į ëįĺëį°
ĠìķĪ ëĤĺ
Ġìµľê³ł ë´ī
Ġëģ Ī
Ġë³¸ ëĵ¯
Ġê°ĲëıĻ ë°Ľ
Ġê¹ į
ĠíĿ ¬ë
Ġíĸ ĩ
Ġì¤ĳ ëıħ
Ġìķł êµŃ
ë¬¼ ë¡ł
ìŀ¬ë°Į ìĹĪìĸ´ìļĶ
Ġìŀ¬ë¯¸ìĹĨ ëĭ¤ê³ł
ãĦ ²
ëĤ¨ ê¸°
ìĦ¤ ë§Ī
ì¦Ī ê°Ģ
ĠìķĦê¹Ŀ ëĦ¤ìļĶ
Ġë§Īì§Ģë§ī ê¹Įì§Ģ
ĠìĦ¤ ë§Ī
ĠìłĦê°ľ ìĻĢ
Ġë°ĺìłĦ ìĿĦ
ê¶ ĮìĿ´
Ġì¦Ĳ ê¸¸
ìĵ° ëĬĶ
ìŀ¬ë°ĭ ìĿĮ
Ġìŀł ìĭľ
ê²¬ ìŀĲëĭ¨
Ġì¼Ģ ë¦ŃíĦ°
Ġìĸ¼êµ´ ìĿ´
Ġê½¤ ëĤĺ
ìķĦëĭĮ ê°Ģ
ìĪĻ íķľ
Ġì½ ©
Ġë¬» ìĸ´
âĢ ¦
ĠëĨĢëĿ¼ ìļ´
ĠíĶ¼íķ´ ìŀĲ
ĠìĿ¼ë¶Ģ ëŁ¬
ìĿ´ìłķëıĦ ë©´
Ġëĭ¤íģĲë©ĺíĦ° ë¦¬
Ġy ou
ĳ ëĮĢ
Ġë ĹĦ
ìĿ´ ì£ł
ìŀ ĪëĥĲ
ì§Ģ ìĹĲ
ëĤ ©ëĭĪëĭ¤
¬ë Ħ¤ìļĶ
ëıĦ ë¡ľ
ëł Ľ
ĠìĹĨ ëĭ¤ê³ł
ĠëĤ´ ê²Į
ķĮ ë¬¸ìĹĲ
ë¯¸ ì¹ĺ
íŀĪ ê³ł
íĸĪ ìĿĦê¹Į
ĠìĪĺ ë§İìĿĢ
ë£¨ íĨł
Ġë¬´ ê²Į
ë¶Ħ ëĵ¤ìĿĢ
ê°ľ ìĿ¸
ĠìĿ¸ ëĶĶ
Ġìµľê³ł ë¡ľ
Ġêµ ¬ë¦¬
ìłĢ ê¸°
ìķĪ ëı¼
Ġìķł ë§¤
ĠìłĢ ê¸ī
ë°Ķ ëĿ¼
ĠìĹŃ ìĤ¬ë¥¼
Ġë°Ķ íĥķ
ĠëıĻ ìĸĳ
ë³¼ ìĪĺë¡Ŀ
ë³´ëĬĶ ê²Į
Ġê´ľì°® ê³ł
Ġì¤Ħ ê±°
Ġë§¤ëł¥ ìĹĲ
ĠìłķëıĦ ê°Ģ
ĠìĥĿ ê¸´
ĠìķĦë¬´ ëŁ°
ĠíĮĮ ìĽĮ
Ġê³ §
ìµľìķħ ìĿ´ëĭ¤
ìĬ¬ íĶĦëĭ¤
ĠìķĮë°Ķ ëĵ¤
ĠìĤ¬ìĭ¤ ìĿĦ
ì±ħ ìĿĦ
ĠìķĬìķĺ ëįĺ
ë¡Ń ê³ł
ê±°ê°Ļ ìĿĮ
ìĿ´íķ´ ê°Ģ
Ġë¹Ľ ìĿĦ
ĠìłĦìĦ¤ ìĿĺ
ìĬĪ íį¼
ëĳ¥ ìĿ´
Ġìĸ´ëł¸ ìĿĦëķĮ
¬ë° ķ
ĠíĬ¹ìĪĺ íļ¨ê³¼
ĠëĮ Ħ
o w
¨ ¹
Ġ X
ľ ¨
ìĿ´ ëĵł
ê°Ģ ë³įê²Į
ëıĦ ìĿĺ
ê²Į íķĺëĬĶ
ëĭĪ ì½ľ
ëį° ì²´
ìĺ µ
ìĬ¤ íĨ¤
ê¹Į ìļĶ
Ġíķĺ ìĭľ
ìļ° ìĬ¤
Ġìĺ ¹
íĥ Ĳ
Ġíķľ ìĪ¨
íķ¨ ê»ĺ
ë¶Ħ ë§ĮìĹĲ
ĠìķĪ ëĵ¤
ê°Ļ ìķĦìĦľ
ĠìĽ ¨
ìŀĦ ìĹĲëıĦ
ĠìĥĿê°ģ ëĤľëĭ¤
ìľł ë¦¬
ìŀ¬ë¯¸ ìŀĩ
ĠëŃĲ ëĭĪ
Ġìķł ê¸°
Ġê³ł ëĩĮ
ìľĦ ìĽĲ
Ġíĥ Ŀ
ì´ ¬ìĺģ
Ġë©ĭ ì§Ģê³ł
Ġê´ľì°® ëĭ¤
ìĤ¬ëŀĮ ìĿĺ
ë¨¹ ìĿĢ
ê·¼ ëŀĺ
ĠíĺĦìĭ¤ ìĿ´
Ġì§ľì¦Ŀ ìĿ´
ìĬ¤ëŁ¬ ìĽĮ
ë¶Ī íĹĪ
ë³ĳ íĹĮ
Ġãħ Ĥ
ìĹ¬ë ²Ħ
Ġêµ¿ êµ¿
ìĿĮìķħ ëıĦ
íĥĪ ì¶ľ
ìŀ¬ë¯¸ìĹĨ ìĸ´ìļĶ
Ġê¶ģê¸Ī íķ´ìĦľ
ìĭľëĮĢ ìĹĲ
Ġìŀ¥ë¥´ ê°Ģ
Ġb ê¸ī
¶Ģ íĦ°
ê¸°ìĸµ ìĿ´
Ġd vd
ì§Ħë¶Ģ íķľ
ìĥĪë¡ľ ìļ´
a l
i c
Ġ k
Ġì Ńī
ëĬĶ ê±¸
ìł Īë¡ľ
Ġìŀ ĲëıĻ
ĠìĺģíĻĶ ë³´ë©´ìĦľ
ëĤĺ ê°Ħ
ë§Į ì¡±
ë¦¬ ìĹĦ
ìķĦ ëħ¸
ìĺģíĻĶ ìĹĲìĦľ
ìĹĨ ì§Ģ
ĠëĤĺ ìĺ¬ë
ì§Ħ ìķĬ
Ġìŀ¬ë¯¸ ë¡ľ
ĠëĤ´ ìĥĿ
íķł ë¿Ĳ
ìĹ° ìķł
Ġê°Ģ ë³į
ë¯¸ ëĬĶ
Ġ1 99
ëĵł ê°Ģ
Ġì² ©
Ġë§Ĳ ìŀĲ
ë¬´ ìĭľ
ĠìĤ¬ ìļ©
Ġì¡° íĻĶ
ĠíĮ Ŀ
íķĺì§Ģ ë§Ī
ëĭµ ëĭĪëĭ¤
Ġë©ĭ ìŀĪëĬĶ
íĺ¸ ê°Ĳ
ìĽł ê³ł
ì¹´ íĶĦ
ì¹´ ë©ĶëĿ¼
Ġë§Ŀ ì¹ľ
ì°¸ ìĭł
ê»ĺ ìļĶ
Ġì°į ê³ł
ĠëĨĢ ëŀĲ
Ġë´Ĳìķ¼ ì§Ģ
Ġìĭ¸ ìĽĢ
©´ ìĦľ
Ġê°ģ ìĥī
ĠìĪĺìŀĳ ìĿ´ëĭ¤
ĠëĶ°ëľ» íķĺê³ł
ĠC ê¸ī
ĠìŀĶìŀĶ íķĺê³ł
íķĻêµĲ ìĹĲìĦľ
ìŀĶìŀĶ íķĺê³ł
;;;; ;;;;
Ġë¦¬ìĸ¼ ë¦¬íĭ°
ĠìĨĮìĦ¤ ìĿĦ
ĠìĭĿìĥģ íķľ
ĠíĿ¬ë§Ŀ ìĿĦ
íĽĮë¥Ń íķľ
1 99
6 0
½ ķ
ëĭ¤ ë¥´
íķĺ ìĿ´
ĠìĺģíĻĶ ëĤĺ
ĠìĺģíĻĶ ìķ¼
ìĿĢ ëį°
ëĵ¤ ë¡ľ
ë¥ ľ
ë³´ ê¸´
ìĬ¤ ë§¨
ëŀ Ń
ìĹĨ ëĤĺ
ì£¼ ê¸°ëıĦ
ìĥģ ìłģìĿ¸
Ġì§Ģ ê²¨
Ġíķľ ë°©
íķł ì§Ģ
ĠëĮĢ íĨµëł¹
ë¶Ģ ëĬĶ
êµ¬ ìĿĺ
ë¶Ħ ëıĻìķĪ
Ġì£¼ ì§Ģ
ê°Ĳ ê³¼
íĬ¸ ë¡ľ
ĠìĿ¼ ìľ¼
íĤ ¬ë§ģíĥĢìŀĦ
Ġê°Ĳëıħ ìĿĦ
Ġìŀ¬ë¯¸ìŀĪ ìĬµëĭĪëĭ¤
Ġë°ĺ ëĮĢ
ë°ķ ì£½
Ġë§¤ ëĭĪìķĦ
ĠëĤĺìĺ¤ ëĬĶëį°
ëĿ¼ëĬĶ ê²Į
Ġë¡ľ ì½Ķ
Ġìĸ´ëĸ ¨
ĠëĬĲëĤĮ ìĿĢ
Ġíŀĺ ëĤ´
Ġì£¼ìĿ¸ê³µ ëĵ¤
ê°ĲëıĻ ëıĦ
Ġëĭµ ìĿ´
ëĤ¬ ìĿĮ
Ġê¹Ĭ ê²Į
ĠìłĲìĪĺ ëĬĶ
ĠìłĲìĪĺ ì¤Ģ
ĪëįĶ ëĿ¼ë©´
ìľłì¹ĺ íķľ
ìľłì¹ĺ íķĺê³ł
Ġë§Įëĵ¤ìĹĪ ìĿĦê¹Į
Ġê·ĢìĹ½ ëĭ¤
Ġãħīãħī ãħī
ĠíĥĦíĥĦ íķĺê³ł
ì¶Ķìĸµ ìĿĺ
2 1
o d
o t
¤ ëĭ¤
ìĿĺ ë¥¼
ìķĦ ì§Ģ
Ġê·¸ ê²ĥìĿĦ
ê¹ ĥ
Ġì¢ĭ ìĿĦëĵ¯
Ġëĭ¤ ìĭł
ìŀĪ ì§Ģ
Ġìĥ ĺ
ìķĺ ìľ¼ë©´
êµŃ ìĿĺ
ĠìķĪ ìĸ´ìļ¸
Ġìµľê³ł ìŀĦ
ë¬´ íĺĳ
ë¹Ħ ì¶Ķ
ìĺĢ ëĤĺ
ê±¸ ìŀĳ
Ġë¹Ħ íĸī
ëıĻ ìĽĲ
Ġìĭ¤ íĹĺ
ì§Ī ìķĬ
ìĬ¨ ìĿ´
ëŀĢ íĭ°
ĠìķĦê¹Ŀ ëĦ¤
Ġë¶Ī ê°ĢëĬ¥
Ġì²ĺìĿĮ ìĹĶ
Ġê·¹ ëĭ¨
ì© į
Ġëĭ¹ ìĹ°íŀĪ
ĠëĬĲëĤĮ ìĿ´ëĭ¤
ê°ĲëıĻ ìĿ´
Īë° ©
ì£½ ë°ķì£½
Ġì» ¸
ĠíĮĮ ê´´
Ġëĭ´ ê¸´
ĠìŀĬ ê³ł
Ġìķ¼ íķľ
Ġë¬´ìĹĩ ìĿ¸ê°Ģ
ĠíıŃ ë°ľ
ĠíıŃ íĴį
ì²ł íķĻ
ë§ĪìĿĮ ìĹĲ
Ġëª»ë³´ ê²łëĭ¤
Ġìŀ¤ ëĭ¤
Ġìĭľë¦¬ ì¦
íķĺ ëĶĶ
íķĺ ëĭĪê¹Į
ê°Ģ ëģĶ
ëĤĺ ê°ĢëĬĶ
ëĿ¼ ìĿ¸
ëŁ ¬ëĿ¼
ìŀĲ ë§ī
ìĽ Ł
ĠìĹĨ ëĥĲ
ìłģ ìľ¼ë¡ł
Ġë§Į ëĤľ
Ġìŀ¬ë¯¸ ìŀĩ
ìĤ¬ ê·¹
ê²ł ëĬĶëį°
ê°ľ ëħĲ
~~ ^^
ìĹĪëĭ¤ ë©´
ìĶ ¹
ìŀ¬ë¯¸ ìĹĨëĬĶ
Ġë§Įëĵ¤ ìĸ´ìĦľ
ĠëĤ´ìļ© ìĹĲ
ĠìĤ¬ëŀĳ íķ´ìļĶ
ìľĦ ê°Ģ
ìľĦ íķľ
Ġëĭ¤ìĭľ ë³´ëĭĪ
ìĬ¨ ìĿĺ
íļĮ ê°Ģ
Ġíĥ ĵ
ĠìĿ´íķ´ ìķĪ
ĠìĪ Ļ
Ġê´ľì°® ìķĺëĬĶëį°
ìŀĺ ëª»
Ġê¹Ģ ë¯¼
ëĤ´ìļ© ìĿ¸ì§Ģ
ĠëĲ ¬
Ġê³¼ íķĻ
ì¡Į ëįĺ
Ġë§İìĿĢ ê±¸
ĠíĴ Ī
ĠìķĬìĿĢ ëį°
ìķ¡ìħĺ ëıĦ
ì´Ī ëĵ±íķĻêµĲ
ĠìĨĮìŀ¬ ìĻĢ
Ġìĭľìŀĳ íķ´ìĦľ
Ġìŀ¬ë¯¸ëıĦ ìĹĨê³ł
ëłĪìĿ´ ëĵľ
ìķĹ ëĭ¤
Ġëķ ¡
Ġëķ Ĳ
Ġìķ½ê°Ħ ìĿĺ
êµ³ êµ³
ì´Īë°ĺ ìĹĲ
ĠìĨĮì¤ĳ íķ¨ìĿĦ
Ġìĸ´ë¦´ ìłģ
ìĽ¨ ìĿ´
ĠìĹ¬ëŁ¬ ê°Ģì§Ģ
ê¶ģ ê¸Ī
ĠíĬ¹ë³Ħ íķľ
Ġëĳĺì§¸ ì¹ĺê³ł
ë ·°
ëĭ¤ ë§Į
ê¸° ìĻĢ
ëĤĺ ë¥¼
ìķĦ ìĹŃ
Ġê° Ŀ
ëį° ë¯¸
ĠìķĦ ëŀĺ
ĠìķĦ íĮĮ
ìĭľ ê¸°
ë³´ ìĭľê¸¸
ëĮĢ ìĹĲ
ìŀĪ ìľ¼ë©´
ìĥģ ìĹĲ
Ġìĸ´ íľ´
ìĭł ëıĦ
Ġê± ±ìłķ
ëķĮ ë§¤
ìĨĮ ê°Ģ
ëĵ¤ìĿ´ ëŀĳ
ìłķë§Ĳ ë¡ľ
Ġë¯¸ ì³¤
ëĲĺ ëĤĺ
ìĦł ìĿ´
ìĦł íĥĿ
íĭ ĭ
ëıĻ ë¬¼
ĠëŃĲ ê³ł
ĠëŃĲ íķĺëĬĶ
ĠìĹŃ ëŁī
Ġë°Ķ ëĭ¤
ĠìĹĨëĬĶ ê²Į
ì²Ń ì¶ĺ
Ġìĭł ìĿĺ
Ġì£½ ìĹ¬
ĠìĿ´íķ´ íķłìĪĺ
Ġë°° íĬ¸ë§¨
ìŀĺ ë§Įëĵ¤
........ ...
íĮĮ ì¹ĺëħ¸
ĠìłĲ ìĿ´
ë¹ł ìł¸
íıī ìĥĿ
ì§ĢìķĬ ëĬĶëĭ¤
ĠìĥĿ ìĹĲ
Ġë´Ĳìķ¼ íķĺëĬĶ
ëĪĦ êµ°
ìĽĶ íķľ
ĠìĭľëĮĢ ìĹĲ
ĠìĿ´ë¦Ħ ìĿ´
Ġê°ĸ ëĭ¤
ìķĮë°Ķ ëĵ¤
Ġìŀĺëª» ëĲľ
Ġì« ĵ
Ġì¹ľêµ¬ ê°Ģ
Ġë§ĮìłĲ ìĹĲ
âĺħ âĺħ
ë¦¬ë©´ ìĦľ
ĠíĿ¡ ìŀħ
Ġê°Ģë²¼ ìļ´
ìĹĲëĮĢ íķ´
? ..
ĳ ¼
íķĺ ìĭ¤
¬ë ½ķ
Ġí ĺģ
ìĭ ¼
ëĤĺ ìģĺ
ĠëĤ ¯
ëĵ¤ íķľíħĮ
ìĿ¸ ê²Į
Ġë³´ ëĿ¼ê³ł
Ġê·¸ ê²ĥìĿ´
ĠëĤĺ ìĺ¬ëķĮ
Ġíķĺ ìĹ¬
ìķ¼ íķľëĭ¤
ì£¼ ì§Ģ
ì£¼ ìĿ¼
ìłģ ìĿ´ëĿ¼
ĠìĻ ¤ì¼Ģ
ê³¼ ê±°
ìķĺ ëĦ¤
íĶ ĶìĿ´
ì¹ĺ ìĿĺ
ĠìĨ Ķ
Ġìŀ¬ë°Į ìĹĪëįĺ
ĠìķĪ ê°Ģ
ĠëŃ £
ĠìĻľ ê³¡
íĬ¸ ë¥¼
ìłĢ ì§Ī
ëįĶ ë§¨
ë²Ħ ë¦´
Ġìľł íĸī
Ġìŀ¥ ìķł
ĠìĤ¬ëŀĮ ìĿ´ëĿ¼ë©´
ĠëĤ´ìļ© ìĿĺ
ëĭĺ ìĿĢ
Ġë§¤ ë¯¸
Ġë§¤ ëģĦ
ë§Īë ¥´
Ġìĭľê°Ħ ë§Į
Ġì£½ ê³ł
ĠëıĦ ë¬´ì§Ģ
ĠíķľêµŃ ìĹĲìĦľ
Ġëĭ¹ íĻ©
Ġìļ¸ ë©´ìĦľ
Ġë§Ŀ ê°Ģ
Ġë§ŀ ìķĦ
ĠìłķëıĦ ëĬĶ
ìĤ¬ëŀĳ ìĿĦ
Ġíİ¸ ìķĪ
Ġê³µê°Ĳ íķł
Ġë²Ħ ë¦¬ê³ł
Ġíĺ¸ ê¸°
ìŀĸ ìĿĢ
ĪëįĶ ëĿ¼
Īë³´ ëĭ¤
ĠìĬ¤íĨł ë¦¬ëĿ¼
ê·¸ëŁ° ëį°
Ġë¨¼ ê°Ģ
ìľ¼ë©´ìĦľ ëıĦ
ìĸ´ë¦° ìĭľìłĪ
Ġë¶Īíİ¸ íķľ
ĠãĦ·ãĦ· ãĦ·
ĠìļĶìĨĮ ê°Ģ
Ġë£¨ ì¦Ī
ĠìľłìĿ¼ íķĺê²Į
Ġì»¨ ìħī
ëıħíĬ¹ íķľ
Ġìłł ìŀ¥
ì¹´íĶĦ ë¦¬ìĺ¤
Ġ K
ĠìĺģíĻĶ ìĺĪìļĶ
ĠìĹ ¼
ëĤĺ ìĿ´íĬ¸
Ġìł Īë¡ľ
ëĵ¤ ëģ¼ë¦¬
ìłķ ìĹĲ
ìłķ ì©¡
ë§Ī ìĿĺ
ê¹Į ì§Ģë§Į
ìļ° ë¦¬ê°Ģ
ìĥģ ê³¼
ê°Ħ ìĹĲ
Ġìĸ´ ëĶ
Ġìĸ´ ëķ
ëĵľ ëŁ½ê²Į
ì¹ĺ ë¥¼
Ġë¬´ ëĤľ
ë¶Ħ ëªħ
ĠìĥĿê°ģ ëĤĺ
Ġë§Ĳ ìķĦìķ¼
Ġë§Ĳ ê³łëĬĶ
Ġëª» ë´Ĳì£¼
íı ¼
Ġìľł ìķĦ
ëĲĺ ëĬĶëį°
ì¡° ìĦł
Ġëªħ ìŀ¥ë©´
Ġëªħ ë³µìĿĦ
ìĹŃ íķł
ë°ĺ ê°ľëıĦ
Ġíķł ë§Ĳ
ëĭµ ê²Į
Ġê¸°ìĸµ ëĤĺëĬĶ
ìķĮ ê³ł
ìĤ¬ëŀĮ ìĿĦ
ë¨¹ ìĿĦ
íħĮ ëŁ¬
ë¦¼ ìĿ´
Ġíŀĺ ìĿĦ
Ġì¤Ħ ìĪĺ
Ġë§Įëĵ¤ìĸ´ ëĿ¼
ĠìĦľ ìļ¸
ì¡Į ìĸ´ìļĶ
ĠìĿ¸ìĥĿ ìĹĲ
ĠìĪĺì¤Ģ ìĿĦ
Ġì¶Ķì²ľ íķĺê³ł
ëģĿ ëĤĺ
Ġì¦Ĳ ê¸°
Ġë³´ê²Į ëĲľ
Ġëį° ë·Ķ
Ġì« Ħ
Ġë¹Ľ ëĤĺëĬĶ
ëļ± ë§ŀ
Ġëļ Ŀ
Ġìĵ¸ëį° ìĹĨìĿ´
ãĢ Ĥ
ov ie
ìķĪíĥĢ ê¹Ŀ
Ġì§ľì§ĳ ê¸°
ĠíĺĲ ìĺ¤
ëŀĢíĭ° ëħ¸
^ -^
i m
ê º
Ĩ Ĵ
ê°Ģ ìļ´
ê¸° ë²ķ
ìķĦ íĶĦ
ìĬ¤ ìĻĢ
ìĬ¤ íİĺ
ì§Ħ ì§Ģ
ìĺ¤ ëŀ«
ê·¸ ëŁŃìłĢëŁŃ
ì° ¬ëŀĢ
ë¶Ģ ìĹĲ
ê°ľ ë¥¼
ìłĢ ë¦¬
ĠìĨĮ ìĨĮíķľ
ìĽĲ ìĿĢ
ĠëĵľëĿ¼ë§Ī ìŀħëĭĪëĭ¤
Ġë°°ìļ° ëĬĶ
ì¡° ìķĦ
ĠìĤ¬ëŀĳ íķ´
ìļ¸ ë¿Ĳ
Ġì¢ĭìķĺ ìĿĦíħĲëį°
ìĺĪ ìģĺ
Ġìķ¡ìħĺ ê³¼
êµĲ íĽĪ
Ġëª° ëĿ¼
ìĭľê°Ħ ëıĻìķĪ
ĠëĳĲ ê·¼
ëª» íķĺëĬĶ
ê²° ë¡ł
ĠìĹ¬ìŀĲ ëĬĶ
ëĤ´ìļ© ìĿĦ
Ġë³¼ë§Į íĸĪëĭ¤
Ġê±´ ê°Ģ
Ġì°¾ ìķĦìĦľ
ĠìĻ¸ ë¡ľ
Ġë¨¹ ëĬĶ
Ġë§ĲìĿ´ íķĦìļĶ
ëģĿ ëĤĺê³ł
Ġëĸ¨ìĸ´ ì§Ģ
Ġê³ ±
ĠìĤ¶ ìĿ´
Ġìŀł ëĵ¤
ìĹ¬ë ħ
ìĽĲìŀĳ ìĿĺ
Ġë¬´ìĦŃ ê³ł
Ġëĵ¤ìĸ´ ê°Ģ
ì¿ µ
ĠìķĬìķĺ ì§Ģë§Į
ìķĪëĲĺ ê³ł
ĠìķĶ ê±¸
ìŀĲì²´ ëĬĶ
ìħĶ ìķ¼
Ġíģ´ ëŀĺ
Ġë³´ìķĺ ëįĺ
Ġëĭ¬ ì½¤
ĠìĿ´ê²ĥ ë³´ëĭ¨
ìĸ´ë¦° ìĿ´
ĠìĥĿê°ģíķ´ ë³´ê²Į
ĠíĿĳ ìĿ¸
Ġê°ĢëĬ¥ íķľ
ĠíĿĺëŁ¬ ê°ĢëĬĶ
Ġ: )
ìĭłìĦł íķľ
ë§ĺ ìĹĲ
Ġê°Ģê¹Į ìļ´
Ġê±°ì§ĵ ë§Ĳ
O ST
n d
£ Į
íķ ĳ
ê³ł ëıĦ
íķĺ ìķĦ
íķĺ ëĬĺ
ìĿĢ ê±°
ìĸ´ ë¥¼
ìĿ¸ ìĹĲ
ĠìķĦ ëĨĶ
íķ´ íĶ¼
ìĺģíĻĶ ë³´ê³ł
ë³´ êµ¬
ìĬ¤ íı¬
ìŀĲ ë¦¬
ĠëĤĺ ìĿĦëĵ¯
ìĥģ ìĥģ
íĺ Ķ
ê·¸ ìĿĺ
Ġìĭľ ìĤ¬íļĮ
Ġìµľ ë¯¼
ìĭł ê¸°
Ġìŀĺ íķľëĭ¤
Ġì£¼ ìĦ±ì¹ĺ
íİ¸ ìĹĲìĦľ
íĥĢ ê³ł
ë²Ħ ë¦¬
Ġë² ¨
ĠìĤ¬ ìļ´ëĵľ
ëªħ íķľ
Ġì¡° ì°¨
Ġìĭ¶ ìĹĪëĭ¤
Ġìĭ¶ ìĹĪëįĺ
Ġì¢ĭìķĦ íķĺì§Ģë§Į
íķĺì§Ģ ë§Ĳ
ĠìĹŃ ê²¨
ê» Ģ
ëħ¸ ì¶ľ
íıīìłĲ ë³´ê³ł
ĠíĻ Ģ
Ġë¶Ħ ëŁī
ì¹ľ êµ¬ëĵ¤
ìĤ´ ìĿ´
ë³¼ ìĪĺ
íķĺê¸° ìĹĶ
Ġë§Įëĵ¤ìĸ´ ëĤ¸
Ġìłģ ìĸ´ëıĦ
ĠìĿ¸ìĥĿ ìĿ´
ìĤ¬ëŀĳ ê³¼
Ġëª¨ìĬµ ìĿĢ
Ġê³µê°Ĳ ëıĦ
ĠëĨĢ ëŀĲëĭ¤
ëŁ¬ë ĥĲ
Ġìŀł ìĿ´
ĠëĬĲëģ¼ ê³ł
Ġë¹¼ ê³¤
íķĺìĭľ ê³ł
Ġìŀ¼ìŀĪ ìĸ´ìļĶ
Ġë°°ê²½ ìľ¼ë¡ľ
ĠëĵľëĿ¼ë§Īë ¡ľ
íıŃ ëł¥
Ġì£¼ìłľ ê°Ģ
ĠìķĮìķĺ ìĿĮ
íķĦ ë²Ħê·¸
Ġìŀĥ ìĿĢ
ìĹĦì²Ń ëĤľ
Ġê°Ķ ëĭ¤
Ġëĥ ĦìĥĪ
Ġëĭ¤íĸī ìĿ´ëĭ¤
Ġìĸ´ëłµ ëĭ¤
ĠìĿ´ëŀĺ ìĦľ
ĠìķĪë³¸ ëĭ¤
ĠíĹĽ ìĽĥìĿĮ
ê°ľìĹ° ìĦ±
ì¢ħìĿ¼ ê´Ģ
ë¶ĪíĹĪ ìłĦ
ª ©
³ ¼
ê³ ±
ìļ ¤
ì§Ģ ë¶Ģ
ëĤ Ń
ĠìĺģíĻĶ ìĿ´
ĠìĺģíĻĶ ìĿ¸ì¤Ħ
ìĿĦ ìĪĺê°Ģ
Ġë§ ´
íķ´ ìł¸
Ġë³´ ëĭ¨
ìłĲ ìĹĲ
ìŀĲ ëıĦ
ì§Ħ íĸī
ĠìĹ° ê·¹
Ĳëı Į
ìķĺ ëĦ¤ìļĶ
Ġëª¨ ë¥¸ëĭ¤
êµŃ ë¯¼
ë¶Ħ ëĵ¤ìĿ´
ìħ §
ĠìķĪ ì¢ĭìķĦ
~~ !!
Ġì§Ħì§ľ ë¡ľ
Ġêµ īìŀ¥
Ġê°ľ ìĦ±
ĠìĨĮ íĻĶ
ë¹ ħ
^^ *
Ġìĭ¶ ìĸ´ìĦľ
ĠíĮ į
ì¦Ŀ ìĿ´
ìĺĪ ì§Ħ
Ġëª¨ë¥´ ì§Ģë§Į
ìŀĪëĬĶ ìĺģíĻĶ
Ġë§Īì§Ģë§ī ìĹĶ
Ġë§Ŀ ì¹ĺ
Ġë³´ê¸° ê°Ģ
ëĶ© ëķĮ
Ġìłģ ëĭ¹íŀĪ
ëįĶëĿ¼ ë©´
ìĬ¹ ìłĦ
ëŁ¬ë ¸Į
ì²ĺìĿĮ ìĹĲëĬĶ
Ġìĸ´ëĶĶ ë¡ľ
ĠìĨĮìŀ¬ ëıĦ
Ġì¹´ ë©Ķ
ëĪĦ êµ¬
Ġìķŀ ëĴ¤
ĠëĶĶ ìĽĮ
ĠìĺģíĻĶëĿ¼ ìĦľ
Ġê·¸ìłĢ ê·¸ëŁ°
Ġì±ħ ìĿĦ
Ġë§Įëĵ¤ìĹĪ ëĤĺ
Ġëķ ħ
ĠíĿĶ ëĵ¤
ĠìĻĶ ìĬµëĭĪëĭ¤
Ġíĸ¥ ìĹ°
ĠìĹ¬ì£¼ ê°Ģ
ĠìĹ¬ëŁ¬ë ¶Ħ
ĠíķĻêµĲ ìĹĲìĦľ
Ġê°ķëł¬ íķľ
ë¤ Ħ
ìķĦëĭĪë ©´
íģ¬ëł ĪëĶ§
1 8
S F
a y
e t
ê°Ģ ë¦¬
ê² ī
ëĿ¼ ìĹĲ
ëĦ Į
ìĭľ ìĿĺ
ë³´ ëĦ¤ìļĶ
ìĬ¤ íĭ±
Ġë° ı
ìŀĲ ë©´
íķĺê³ł ëĬĶ
Ġìµľ ì´Ī
ì¹ĺ ëıĦ
êµ¬ ìĹŃ
Ġëª¨ ìļķ
Ġìłķë§Ĳ ìĿ´ì§Ģ
Ġë¬´ ëĦĪ
ĠìŀĲ ê¸°ê°Ģ
íİ¸ ê³¼
ĠíıīìłĲ ë³´ê³ł
Ġë© ĶìĿ´
Ġë¹ Ļ
ĠëģĿ ëĤłëķĮ
Ġìļ° ë¦¬ëĵ¤
Ġê°Ĳëıħ ëıĦ
ĠìĤ¬ëŀĳ íķ©ëĭĪëĭ¤
Ġë°ĺ ìĺģ
ëĳĲ ë²Ī
ĠíĽĦ ìĹĲ
ĠëĶ° ë¦Ħ
ì§ĳ ìĸ´
ì§ĢìķĬ ëĭ¤
Ġì°¾ ëĬĶ
ĠìķĦë¬´ ëıĦ
íĥĦ íĥĦ
ì¢ħ ìĺģ
Ġì¹ĺ ìľł
ĠëĬĲê»´ ì¡Įëĭ¤
Ġëıħ ìĿ¼
ì¸ Ħ
ê·Ģ ìĹ¬ìļ´
ĠëĴ¤ ìĹĲ
Ġìĭľë¦¬ì¦Ī ì¤ĳ
Ġê¸¸ ìĿ´
Ġ6 0
ĠíĻ© ëĭ¹íķľ
Ġê¸Ģ ìİĦ
ì±Ħ ëĦĲ
íĸĩ ëĬĶëį°
ìĨĮìŀ¬ ê°Ģ
ë³´ì§Ģ ë§ĪëĿ¼
íĿ¥ íĸī
ì§ľì¦Ŀ ëĤĺ
Ġëķ Ģ
Ġì¢ĭê²ł ìĬµëĭĪëĭ¤
ĠìĹĦë§Ī ê°Ģ
ĠëŁ¬ ìĭľìķĦ
Ġëľ¬ê¸Ī ìĹĨëĬĶ
ì§Ģëª» íķł
Ġëª©ìĨĮ ë¦¬ê°Ģ
ĠìĿ¸íĦ° ëĦ·
ì¥¬ ìĸ¼
Ġì§Īì§Īëģ Į
Ġ ,,
Ġì Ł
ëĭ Ĳ
ìĿĺ ìĭĿ
ê¸° ìľĦíķ´
ĠìĹ ®
ìĺ Ľ
ìĺģíĻĶ ìłľ
Ġê·¸ ëĭ¹ìĭľ
ìĬ¤ íħĶ
ìŀĲ ê·¹
ë§Ī ë¦¬
ìĹĨ ìĸ´ìļĶ
ìĹĨ ìĹĪëĭ¤
ĠëĤĺ ìĿĮ
ĠëĤĺ ì¤ĳ
ĠëĤĺ ëŀĳ
Ġíķĺ ë©°
Ġìłķ ë³´
Ġì§Ģ ê²¹ëĭ¤
ĠìĦ ¬ë
ë¯¸ íĻĶ
ìĭł ë¶Ħëĵ¤
ĠìĽ ħ
~~ ~~~
ìĭ¤ ìłľ
Ġë§Ĳ ìĶĢ
ĠìĹ¬ íĥľ
ĠìŀĲ ê³ł
Ġìłľ ìŀĦìĬ¤
Ġë¹ ķëĭĪëĭ¤
ĠìĤ¬ëŀĮ ëĵ¤ìĿĦ
Ġë¶Ģ ëĭ´
ĠëģĿ ìĹĲ
ĠíĮ ¬ëĵ¤
ĠìłĢ íıīê°Ģ
ë°Ķ íĥĢ
ìŀ¼ ìŀĪ
ì¶Ķ ëĬĶ
íĽĦ ìĹĲ
Ġìŀ¥ë©´ ëĵ¤ìĿ´
Ġíıī ê·ł
ĠëıĻ ëĦ¤
ëª» íķľ
Ġê´ľì°® ê²Į
ë³µ ìĪĺ
ĠìĹ¬ìŀĲ ëĵ¤
ìĽĥ ê¸´
Ġìĭ¬ ìŀ¥
ĠìĦł ìĤ¬
ë°Ľ ìĿĦ
Ġìłģ ëĭ¹íķľ
Ġë°ķ ìĪĺ
ìĤ¬ëŀĳ ìĿĢ
ìĻ¸ êµŃ
Ġê·¸ëłĩ ì§Ģë§Į
Ġê¿ Ģ
ĠìĽĲìŀĳ ìĿĺ
ëħĦëĮĢ ìĹĲ
ë¸Ķ ëŀĻ
ê·Ģ ìĭł
Ġë³Ģ íĻĶ
íĺľ ìĦł
ëĳ Ķ
ĠìŀĪìĹĪ ìľ¼ë©´
Ġê·ĢìĹ¬ ìĽĢ
ê·¸ëŁ° ì§Ģ
ĠìķĮìķĺ ëĦ¤
íģ¬ë £¨
ĠìĻł ë§Įíķĺë©´
................ ................
Ġíĺ¹ ìĭľ
ê³³ ìĹĲ
ìį ©
Ġì§Ħì§Ģ íķĺê²Į
ë¡ľë§¨ íĭ±
Ġë³´ìĭľ ë©´
Ġë§¡ ìĿĢ
ìłĦì²´ ìłģìľ¼ë¡ľ
íķµ ëħ¸ìŀ¼
ĠìķĪë¬´ ìĦľ
ê°± ìĿ´
ĠìĿ´ëıĦ ìłĢëıĦ
c k
~ âĻ¥
Ġ &
Ġ W
Ń Ī
ìĿ´ íĶĦ
ìķ ¡
Īë ¹Ħ
ĠìĿ´ ëĭ¤
ĠìĿ´ ëłĩ
ĠìĿ´ ë³´ëĭ¤
ë¦¬ ìĸ¼
ìķĦ ì§Ħì§ľ
ìķĦ ëĪĦ
ì² ¼
ĠëĤĺ ë¬´
ĠëĤĺ ìĿ´ê°Ģ
Ġëĭ¤ íģ¬
Ġìĸ´ ìłľ
Ġê¸° íļį
ë¬ »
ĠìĪĺ ë¡Ŀ
ë¶Ħ íŀĪ
ê²ł ìĸ´
ê²ł ëĭ¤ê³ł
Ġë§Ī ìĭľê¸¸
ëĵ¯ íķĺëĭ¤
ìľł ë°ľ
ì²´ ìłģ
ëĦĪë¬´ ëĤĺëıĦ
ĠëĵľëĿ¼ë§Ī ìĿĺ
ĠìĤ¬ ìĿ´ì½Ķ
ìĺģ ìĿĺ
Ġíķ ¸
ì¡° ìļ©
ìŀ¬ë°Į ëĦ¤
Ġë°Ķ ëĭ¥
ëĸ ¨
Ġìĭ¤ ê°Ĳ
ìŀ¼ ìŀĪìĸ´ìļĶ
ëĿ¼ê³ł ìļĶ
ĠìĤ´ ë¦¬ì§Ģ
Ġíķł ë¦¬ìļ°ëĵľ
ĠìķĦëĭĪ ìŀĸìķĦ
ĠìĿ´íķ´ ë¶Īê°Ģ
Ġì§ľ ë¦¿
ĠíķľêµŃ ìĿĺ
ĠëĤľ ë¬´
ìĿĦê¹Į ìļĶ
Ġì§Ģê¸Ī ìĿĺ
íĥľ íĺĦ
Ġì§ľì¦Ŀ ëĤĺê²Į
ĠìĦľ ìĸĳ
ĠìĥĿ ê²¼
ĠìĬ¤ë¦´ ëıĦ
Ġë°© íķ´
ëĭ¤ëĭĪ ëĬĶ
ìĦĿ ê·ľ
ĠìĹ°ê¸°ëł¥ ìĹĲ
íĳľ ìłķ
ĠìĽĲìŀĳ ìĿ´
ì§Ģê¸Ī ëıĦ
êº¼ ë©´
ìĻķ êµŃ
Ġë³´ê²Į ëĲĺ
Ġë¦¬ ì¦Ī
ìĬ¬ íĶĪ
Ġë¬´ìĦŃ ê²Į
Ġìŀ¼ìŀĪ ìĿĮ
Ġíħ Ĳ
ë¡Ń ê²Į
Ġë¯¼ íıĲ
ì§Ħìĭ¬ ìľ¼ë¡ľ
ĠíĤ¤ ìĬ¤
Ġìĸ¸ ìłł
ë§ĪìĿ´ íģ´
Ġë¯¸ìĨĮ ê°Ģ
Ġëħ¹ ìķĦ
ìłĲë§ĮìłĲ ìĹĲ
Ġë±Ģ íĮĮìĿ´ìĸ´
Ġìĸ´ëĳ ¡
d d
© į
Ġì ª¼
ìĿ´ ëķĮ
Ġìķ µ
ĠìĿ Ħ
ĠìĺģíĻĶ ê°Ļ
Īë ¥¼
ìĿĦ ê²ĥ
ìļĶ íķľ
ĠëĤ ¬ëĭ¤
ìĺ ·
ìĺģíĻĶ ê´Ģ
ìłĲ ìĿ´ëĤĺ
ê±° ê°ĻìĿĢëį°
ìłķ ë¯¼
ì§Ħ ì°½
Ġëĭ¤ ëħĢ
ìłĦ ìĿĺ
Ġìĸ´ ì§¸
ëĵľ ë§Į
ĠìĬ¤ íĥ
ĠìĬ¤ íĭ°
Ġëı Īë²
Ġì° ¢
íŀĪ ìĸ´ë¡ľ
ëŁ¬ ì§Ģ
ìħ °
ìĨĮ ìŀ¥
Ġë§Ĳ ìĿ¸ê°Ģ
ìĭ¬ ìĹĲ
ĠëĵľëĿ¼ë§Ī ëĭ¤
Ġë°°ìļ° ëĵ¤ìĿĢ
ë¯ Ģë¡ľ
Ġìļ° ìĹ°
ì¡° íĺĦ
ë°Ķ ëĭ¥
ĠìĹŃ ê²¨ìļ´
Ġìĭľê°Ħ ìķĦê¹Ŀëĭ¤
ëĬĲ ëĥĲ
Ġë¶Ī ê³¼
Ġë©ĭ ì§Ģê²Į
ì£ ¤
ìĿ´ê±° ë³´ê³ł
Ġë°° ê¸ī
íĺķ ìĿ´
Ġì°¨ ìĿ´
Ġë¹ł ë¥¸
ĠíķĦìļĶ ê°Ģ
Ġìĺģìĥģ ìĿ´
ìĻ¸ ìĿĺ
ê¸°ëĮĢ ë¥¼
Ġë²Ħ ë¦°
ãĦ·ãĦ· ãĦ·
ĠëĤ« ê²łëĭ¤
Ġë¹łìł¸ ìĦľ
ĠíĦ° ë¯¸ëĦ¤ìĿ´íĦ°
ê·¹ìŀ¥ íĮĲ
ĠìĥģíĻ© ìĿĦ
ĠìĪ¨ ê²¨ì§Ħ
ĠìĻĶ ëĭ¤
ĠìĤ¬ë ¬´
ĠìĿĺëıĦ ê°Ģ
íĶĦë¡ľ ê·¸ëŀ¨
ë²Īë ´¤
Ġì¿ µ
Ġëľ¬ê¸Ī ìĹĨìĿ´
Ġë¶Ģëª¨ ëĭĺ
Ġêµ¬ë ¶Ħ
ë± ħ
Ġìĵ¸ëį° ìĹĨëĬĶ
ì« Į
ĠíĦ ¸
a m
i g
l e
ê°Ģ ìľĦ
ëıĦ ìķĪ
ĠìĿ´ ìĿĢ
ĠìĿ´ íĨłë¡Ŀ
ìĸ´ ìĬ¤
ëĵ¤ ìĹ¬
ìĬ¤ ì¹´
ĠìĤ ½
ĠìĤ Ńìłľ
ìĤ Ń
ĠëĤĺ ëłĪìĿ´ìħĺ
Ġíķĺ ê¸°
Ġìłķ ëĭ¹
Ġë¶ ķ
íķł ìĪĺê°Ģ
Ġì§Ħ ë¦¬
Ġìµľ ìĨĮ
ê²ĥ ìĹĲ
íĸĪ ëĭ¤ê°Ģ
ìĤ¬ ëıĦ
ĠëŃ ¥ë¯¸
Ġëĵľ ëĦ¤ìļĶ
Ġê°Ļ ìķĺëĭ¤
ë¹Ħ íķ´
Ġë³¼ ëł¤ê³ł
Ġìľł ëŁ½
Ġíĸ ĪëįĶëĭĪ
ìĺģ ìĽĲ
Ġìķł íĭĭ
Ġìĭ¶ ìĬµëĭĪëĭ¤
ìŀ¬ë°Į ìĬµëĭĪëĭ¤
íı¬ ìĿ¸íĬ¸
Ġë³´ëĬĶ ê±°
Ġê¸°ëĮĢ ìĿ´ìĥģ
Ġê°ķ ê°Ħ
ĠëıĻ ìĺģìĥģ
ĠìķĦê¹Į ìĽĮìĦľ
Ġê´ľì°® ìķĺìĿĮ
ê¹Ģ ê¸°ëįķ
Ġëĭ¨ ì²´
Ġë¹ł ì§ĢëĬĶ
Ġìĺģìĥģ ëıĦ
íķľíħĮ ëĬĶ
ì´Ī ëĵ±íķĻìĥĿ
Ġê°ľë´ī íķľ
ĠìĨĲ ë°ľ
ĠíĿ¥ë¯¸ ë¥¼
Ġãħ Ħ
Ġë¶Ģë¶Ħ ìĿĢ
ĠìĭľëĤĺë¦¬ìĺ¤ ê°Ģ
ĠìŀĪìĹĪ ê³ł
ĠëıĮìķĦ ë³´ê²Į
ê²ĥê°Ļ ëĦ¤ìļĶ
Ġëĺĳ ê°ĻìĿ´
ìŀĳê°Ģ ê°Ģ
ĠëĬ¥ ê°Ģ
ì²¨ ìĹĶ
Ġë§ĪìĿ´ ëĦĪìĬ¤
ĠìŀĲê·¹ ìłģìĿ¸
Ġì§Ħì§Ģ íķľ
Ġíģ¬ë¦¬ìĬ¤ ë§ĪìĬ¤
ĠëĪĦêµ° ì§Ģ
ìŀĪëįĺ ëį°
ĠìĦłìĥĿ ëĭĺ
Ġìĸ´ëł¸ ìĿĦ
ë¶ĦìľĦ ê¸°
Ġíİ¼ ì³Ĳ
Ġë°Ķíĥķ ìľ¼ë¡ľ
e d
Ġ is
ì§Ģ ê¸Īë³´
ĠìķĦ íĶĦëĭ¤
Ġë³´ ìĿ´ì§Ģ
Ġê·¸ ìķ¼ë§Ĳë¡ľ
ìĬ¤ íĶ¼
ìŀĲ ìĿ¸
ìĹĨ ëĬĶëį°
Ġíķĺ íĴĪ
ìĪĺ ìĦł
ë² ħ
ìĥģ íĥľ
Ġìłķ ìļ°
Ġê² ¬ë
íķĺê³ł ìĭ¶ìĿĢ
Ġìĸ´ ê±°ì§Ģ
ĠìĦ Ń
ê³µ ì£¼
ìĹ¬ íĥľ
ĠìĹ°ê¸° íķĺëĬĶ
ĠìĪĺ ë©´
êµ¬ ìĻĢ
ìĭ¤ íĮ¨
Ġë§Ĳ íĪ¬
íĥĢ ì¿ł
ìĺĢ ì§Ģ
Ġíĺ ĳ
íĬ¸ ëĬĶ
Ġìĺ¤ ëĬĶ
Ġë¹Ħ íĺ¸ê°Ĳ
ëģ Ĺ
ìĭ¬ ìĭ¬
Ġë¶Ģ ìŀĲìĹ°
Ġìŀ¬ë¯¸ìŀĪ ìĹĪìĬµëĭĪëĭ¤
Ġê³ł ìĸĳìĿ´
íħ ľ
ë§Īë ŀĳ
ì¶Ķ ìĸ´
ìĶ¨ ëıĦ
ĠíĻĶ ìŀ¥ìĭ¤
íķĺëĤĺ íķĺëĤĺ
ìŀĺ ìĥĿ
íķĺê¸° ìĹĲ
Ġì¡¸ ìĹħ
Ġì¶© ìĭ¤
ĠìłĦê°ľ ëĬĶ
ì¡Į ìĬµëĭĪëĭ¤
ëŀľ ìĬ¤
Ġë¨¹ ì¹ł
Ġãħĭãħĭãħĭãħĭ ãħĭãħĭãħĭ
Ġê°Ģì¡± ìĿĺ
ĠêµŃ ê°Ģ
ĠìĿ¸ìĥģ ìłģìĿ¸
ĠìĦ¸ìĥģ ìĿ´
ĠìĹĶëĶ© ìĿ´
20 14
ê°Ķ ëĬĶëį°
ĠìŀĦ íĮ©íĬ¸
ìĭľëĮĢ ìĿĺ
ĠêµĲíĽĪ ëıĦ
ĠìłĦì²´ ìłģìĿ¸
ìķŀ ìĹĲ
Ġê°ľê·¸ ë§¨
ĠìŀĺìĥĿ ê²¼
Ġë¹Ī ìķ½
ĠìĺģìĽĲ íķľ
ëĮĢëĭ¨ íķľ
Ġëįĺ ìł¸
Ġë°Ŀ íĺĢ
ĠíĴĭíĴĭ íķľ
ìłĦë¬¸ ê°Ģ
o p
§ íĮħ
Ġ ãħĭãħĭãħĭãħĭãħĭãħĭãħĭãħĭãħĭãħĭãħĭãħĭãħĭãħĭãħĭãħĭ
ħ ķ
ĵ ¯
ëĭ ¬ë¦¬
ìĿ´ ê²ĥìĿ´
ëıĦ íķľ
ë¦ ¬ëŀĳ
ĠìĺģíĻĶ ì§Ģ
ĠìĺģíĻĶ ìĿ¼
ëĦ ĲëıĮ
Ġë³´ ëł¤
ìĭľ ì§Ģ
ìĭľ ëĦ¤
ìľ¼ ìħ¨
ĠëĤĺ ìĹĲê²Ĳ
Ġíķĺ ëĭ¤ëĭĪ
Ġì¢ĭ ëĦ¤
ê°Ħ íŀĪ
Ġìĺ ³
Ġê°Ģ ìĪĺ
Ġê°Ģ íŀĪ
ì¹ĺ ë©´
ĠëĮĢ ê²°
ìĿ¼ ìĿĢ
ëŀĺ ëĵľ
ìĤ¬ ê³ł
Ġë¬´ ê²ģ
ìħ ľ
ĠìķĪ ëĤĺìĺ¨ëĭ¤
Ġë§Ī ì°¬
Ġëª» ë§Įëĵ¤
ëĤľ íķ´
ë³¸ ì§Ģ
Ġê²ĥ ìĿ¸ê°Ģ
ĠìĿ´ëŁ° ê±´
ĠëģĿ ëıĦ
ëıĻ ê·¼
ĠìĤ¬ëŀĳ íķĺê³ł
Ġë³´ëĬĶ ê²ĥ
ëĸ ¼
ìŀ¼ ìŀĩ
êµ° ëĮĢ
Ġíķł ëķĮ
Ġì£½ ìĿ´
ìĺĪ ìĥģ
ê·¹ íŀĪ
ë¶ĢíĦ° ëĬĶ
ĠìĽĲ ì¡°
ĠíķľêµŃ ìĿ¸
Ġë§Įëĵł ê±°
Ġìŀ¼ ìŀĩ
ì§ĳ ìĹĲìĦľ
ĠìĿ´ìĥģ ìĿĢ
ĠëĤ® ëĦ¤ìļĶ
Ġìłģ ìłĪíķľ
ìŀ¡ ëĬĶ
íĿ¬ ìĿĺ
Ġìŀ¬ ê°ľë´ī
ëķ ¡
Ġëĭ´ ê³ł
êº¼ ìķ¼
Ġë§īìŀ¥ ëĵľëĿ¼ë§Ī
ëįķ ë¶ĦìĹĲ
Ġ20 14
ì¹ĺê³ł ëĬĶ
ĠìķłëĭĪ ëĬĶ
Ġì²¨ ìĿ´ëĭ¤
ĠíĻĺ ê²½
ëĨĢ ëĵľ
Ġìľłì¾Į íķĺê²Į
ìĸµì§Ģ ë¡ľ
ìłľìŀĳ ë¹Ħ
ëĨ¨ ëĦ¤
ë¬´ìĦľ ìļ´
Ġê²°ë¡ł ìĿĢ
ĠìĮ ©
ĠìĬ¤íı¬ ì¸ł
. -
D ë¡ľ
² ł
ì µĿìĺ¤
Ġ R
ìŀ ĥ
ìĹĲ íļ¨
ìĦľ ë¡ľ
ìĸ´ ìĸ´
ë§Į íķĺê³ł
ìĺ ¬ë¦¬ë
ìĭľ ìĬ¤
ì£¼ íĸī
ĠìŀĪ ìľ¼ëĤĺ
ĠìĹ° ìĥģ
ê·¸ ëĭ¤ì§Ģ
Ġíķľ ë²ĪëįĶ
ìĨĮ ë¦¬ê°Ģ
Ġëª» ë³¸
ë¬´ ì¡°ê±´
Ġê²ĥ ëĵ¤ìĿ´
Ġë§Įëĵ¤ ìĪĺ
ĠëĵľëĿ¼ë§Ī ì¤ĳ
ë¦¬ë ³´
ë¦¬ë ĥĲ
ĠëĲĺ ëĬĶëį°
Ġì¡° ëĭĪëİģ
Ġìļ° ë¢°ë§¤
íĤ ¥
Ġìŀ¬ë¯¸ìŀĪ ìĸ´
ëĤ¨ ëħĢ
ì½Ķ ëĤľ
Ġì¶Ķ ë¦¬
ĠíĸĪ ìľ¼ëĤĺ
Ġë¶Ī ìķĪ
Ġë©ĭ ìŀĪê³ł
ì¹ľ êµ¬ëŀĳ
ĠëıĦ ëĳĳ
Ġíıī ìĿĦ
ëª» íķĺê³ł
ĠìĿ´ê±° ë³´ëĭ¨
Ġìŀ¼ ìŀĪëĬĶ
Ġìļ¸ ìĹĪìĸ´ìļĶ
ĠìĹĲ ìĦľ
Ġê°Ģìŀ¥ íķľ
ìĤ¬ë ¯¸
Ġê³¼ ëĮĢ
ëĤĺìĺ¤ ëĦ¤
ëŀľ ëĵľ
Ġíı¬ ìĿ¸íĬ¸
ĠìķĦë¬´ íĬ¼
ë§ŀ ëĬĶ
Ġëĭ´ ëĭ´
ì°½ ìłķ
ìºĲ ë¦¬
Ġì§Ī ë¦¬
Ġíĺķ ìłľ
Ġíĸīë³µ íķĺê²Į
ìĿ¼ë³¸ ìĺģíĻĶ
Ġëĭµëĭµ íķĺëĭ¤
Ġê¸Ģ ê³ł
ĠìĺģíĻĶëĿ¼ ì§Ģë§Į
Ġìĸĳ ìķĦì¹ĺ
ĠìĭľëĮĢ ìĿĺ
Ġë¶ĪìĮį íķľ
Ġëĭ¨ìĪľ íŀĪ
ìº ħ
Ġë©ĶìĦ¸ ì§Ģ
Ġì°¸ìĭł íķľ
ĠëĤĺë¨¸ ì§ĢëĬĶ
Ġê³µíı¬ë ¥¼
ĠíıĲ ì§Ģ
ĠìıŁ ìķĦ
ìĥĪë¡ Ŀ
Ġìĸ´ëĳĲ ìļ´
ì¨Į ëĵł
ĠìĽ° ë©ĶìĿ´ëĵľ
ĠìŀĲëıĻ ì°¨
ã Ĥ
ķ ħ
ìĹĲ ëĭ¤
ìĹĲ ëĭ¤ê°Ģ
ê¸° ìĪł
ĠìĿ´ ë»
... !
ë© Ģ
ìĿ¸ ìĺģíĻĶ
ìĿ¸ ê±¸
ìľ¼ ëŁ¬
ëĮĢ ê³ł
Ġì¢ĭ ìľ¼ëĤĺ
ì£¼ ìĦ±ì¹ĺ
Ġíķľ íİ¸ìĿĺ
ëĵľ ëĦ¤ìļĶ
ëĵľ ìĽĮ
Ġìĭľ ì¼ľ
ĠìĬ¤ íħĿ
Ġìµľ ìĨĮíķľ
Ġëª¨ ìķĦ
Ġë§Ĳ ìĿĢ
ëħĦ ê°Ħ
Ġê²ĥ ë§Į
Ġë³¼ ê¹Į
Ġë¶Ģ íĻľ
ì¢ĭ ìķĺìĸ´ìļĶ
ĠëĵľëĿ¼ë§Ī ìĹĲ
ĠëģĿ ëĤĺìĦľ
ëıĻ ìĿ´
ĠëŃĲ ìŀĦ
Ġìŀ¬ë¯¸ìŀĪ ìĹĪìĿĮ
Ġìĭ¶ ëĭ¤ë©´
Ġê³ł ë¬¸
ëŁ½ ì§Ģ
ê´Ģ ìĿĦ
Ġìĭľê°Ħ ëķĮ
ĠëķĮ ëĬĶ
ĠìĺĪ ì¸¡
ì°¨ íĶ¼
íĭ° ê°Ģ
ĠíĸĪ ìĬµëĭĪëĭ¤
Ġë©ĭ ì§Ģ
Ġê´Ģ ìĭ¬ìĿ´
ìłķëıĦ ìĿĺ
ĠëĶ° ìľĦ
ë§¤ ìĿ´ìħĺ
Ġë¡ľ ë§Ŀ
ìŀĺ ë§Įëĵł
ëĭĪë ²Ħ
Ġëĭ¨ ìĸ´
ì°¸ ëĤĺ
ë°° ëĬĶ
ĠëĤ¨ìŀĲ ì£¼ìĿ¸ê³µ
ĠìĿ¸ê°Ħ ìĿĢ
Ġìĭ¤ë§Ŀ ìĿ´
ĠíĤ ¹
Ġëª¨ìĬµ ìĹĲ
ĠìºĲë¦ŃíĦ° ëĵ¤
ĠìºĲë¦ŃíĦ° ë¥¼
ãĦ·ãĦ· ãĦ·ãĦ·
ĠìĨĲ ê°ĢëĿ½
ĠëĴ¤ ì£½ë°ķì£½
Ġìŀĳê°Ģ ìĿĺ
ëħ¸ìŀ¼ ëħ¸ìŀ¼
ëĪĪ ìĿ´
ĠìłĪ ë§Ŀ
íĮ¬ ìĿ´
íĻķ ìĭ¤íŀĪ
ĠíĴĢìĸ´ ëĤ¸
ëĤĺìĻĶ ìľ¼ë©´
Ġíķµ ëħ¸ìŀ¼
íķĻëħĦ ëķĮ
ĠìĻ¸ê³Ħ ìĿ¸
ìĬ¤íĭ° ë¸Ĳ
ê´ľ íŀĪ
ìłĬ ìĿĢ
> >
´ ëĵľ
Ġ x
ìĿ´ ìłķ
ê³ ½
ê³ł ìĭ¶ëĭ¤
íĻĶ ëĬĶ
Ġìŀ ĪëĥĲ
ëıĦ ìłĢíŀĪ
íķľ ê°Ģ
ê¸° ìŀĲ
ê¸° ë³´ëĭ¨
ĠìĿ´ ë§Įíķľ
ĠìĿ´ ìģ¨
ìĸ´ ëĤĺìĦľ
ë§Į ëĵ¬
Ġìł ĸ
ëĵ¤ ëŁ¬
ìķĦ ëĵ¤ìĿ´
Ġë³´ ìķĦëıĦ
Ġê·¸ ëĵ¤ìĿ´
Ġê·¸ ëıĻìķĪ
ìĬ¤ ëłĪ
ìĬ¤ íĦ´
ë§Ĳ íķł
ì¤ įëĭĪëĭ¤
Ġëĭ¤ ë³´ê³ł
ìĪĺ ìłķ
ìŀ¥ ìĿĢ
ĠìĬ µ
Ġì§Ģ íĤ¤
ĠëĤ´ ëıĪ
Ġê¸° íĥĢ
ĠìķĬ ìĬµëĭĪëĭ¤
Ġê± ·
ìĨĮ ìĭľ
Ġìµľê³ł ëĿ¼ê³ł
Ġê°ľ ëĤĺ
ĠìŀĲ ë³¸
Ġë³¸ ê²ĥ
ìľł ë¨¸
ìµľ ê°ķ
Ġê³µ ì§ľë¡ľ
ĠëģĿ ìĿĦ
Ġì¡° ì¹´
Ġíķ´ ìķ¼ì§Ģ
ë¬¼ ë¡ľ
Ġì¹ ł
ëª¨ ë¥¼
ĠìĽĥ ê¸°ëĬĶ
Ġìĥģ ì§ķ
íĶĦ ëłĪ
Ġíķł ìķĦë²Ħì§Ģ
ì½Ķ ëĵľ
Ġê¸°ëĮĢ ìķĪíķĺê³ł
ì²ľ ìĽĲ
ĠìĹ°ì¶ľ ëł¥ìĿ´
ĠíĸĪ ìĿĦê¹Į
ìĤ´ ëķĮ
Ġë³´ìĹ¬ ì¤Ħ
íĽ ¨
íķĺê¸° ê°Ģ
Ġê¼Ń ë³´ìĦ¸ìļĶ
ìĺĢëĭ¤ ë©´
Ġêµ¬ ìĦ±ëıĦ
ê°ĲëıĻ ìłģ
ê°ĲëıĻ ê³¼
Ġê±¸ ê¹Į
ĠìĨį ìķĺëĭ¤
Ġìľłì¹ĺ íķ´ìĦľ
Ġãħİãħİ ãħİãħİ
Ġë°ĺìłĦ ìĹĲ
ĠìĿ¸ê°Ħ ëĵ¤
ìŀ¥ë©´ ìĹĲìĦľ
ì£½ ìĿĮ
ìĹŃìĭľ ëĤĺ
ìķĦìĿ´ ëıĮ
ë¸Į ë¦¬
Ġë²Ħ ëł¤
ë»Ķ íĸĪëĭ¤
Ġê°Ģì¡± ìĺģíĻĶ
Ġëª¨ë¥´ê²ł ëĦ¤
ëıĮ ëł¤
Ġìķŀ ìĹĲ
ê²ģ ëĤĺ
ëĨĪ ìĿ´
ĠíĮĲ íĥĢ
ìłĲëĮĢ ê°Ģ
Ġê¸¸ ìĿĦ
ĠìĿ´ëĶ´ ê±¸
íķĦ ë¦Ħ
íķĺìŀĲ ë©´
ĠëĤ®ìĿĢ ì§Ģ
Ġë§Įëĵľ ëĦ¤
Ġìŀĺë§Įëĵ¤ ìĹĪëĭ¤
ë²Īë ´Ĳ
ĠíĭĢ ë¦¼
Ġì°½ íĶ¼
ĠìķĪë§ŀ ëĬĶ
ĠìĽĮ ëĤĻ
ë§¤ëł¥ ìłģìĿ¸
Ġìī¬ ìļ´
Ġíĥľìĸ´ ëĤĺìĦľ
ìĻĦë²½ íķľ
ëĤ´ìĥĿ ìĹĲ
ìķĪëĲľ ëĭ¤
ĠìłĲìĪĺì¤Ģ ê²ĥëĵ¤
Ġê°Ŀ ê´Ģ
² ķ
ı ëĭ¤
ìĿ´ ë¯¼
ìĿ´ ìĹĪëįĺ
ìĹ £
ê°Ģ ë©°
ĠìĿ´ ëĿ¼ëĬĶ
ìĸ´ ë¨¸ëĭĪ
... (
Ġê° ĵ
êµ ¬ë¦¬
Ġë³´ ëĿ¼
Ġì¢ĭ ì§Ģ
ì£¼ ëĬĶëį°
ì§Ħ ìĿĺ
Ġíķľ ëĭ¤ê³ł
ìķĺ ëĤĺ
íķł ë§ĲìĿ´
Ġëį ®
êµ¬ ëĬĶ
Ġë¬´ ìĭĿ
ë¶Ħ ëıĦ
íİ¸ ê¹Įì§Ģ
íĬ¸ ë¦Ń
Ġìŀ¥ êµŃìĺģ
Ġë² ħ
Ġë¶Ģ ìłķ
ĠìķĪë ´ĲëıĦ
ëªħ ìĿĢ
ĠëģĿ ëĤł
ĠëĤ´ìļ© ìłĦê°ľ
ĠëĲĺ ëıĮìķĦ
ëıĻ ê±´
ì¡° íıŃ
ëª¨ ìĸĳ
Ġëĭ¤ìĭľ ê¸Ī
ëŃ ī
Ġëĵ¤ ê²Į
Ġë§Īì§Ģë§ī ìĿ´
Ġë³´ìĹ¬ ì¤¬
Ġë°° ê¼½
íķĺëĤĺ ìļĶ
ìĽł ëĬĶëį°
ãħľãħľ ãħľ
Ġë§ŀ ëĤĺ
ĠëĪĦ êµ¬ë
ìĤ¬ëŀĳ íķĺëĬĶ
ĠìķĦëĭĪëĿ¼ ë©´
íĿ¬ ìĦł
íĻ© ëĭ¹
Ġë¨¸ ë¦¿
ìĿ´ëĿ¼ëĬĶ ê²Į
ì²ĺìĿĮ ìĹĲ
Ġê°Ģì¡± ìĿ´
Ġê³ ¤
Ġìŀł ìĿĦ
ĠëĮĢìĤ¬ ëıĦ
ëįķ ìĹĲ
Ġìłľëª© ìĿĦ
ĠëĦ¤ íĭ°ì¦Į
Ġê¸Ģ ìĿĦ
ì°¬ ìļ±
Ġê·ĢìĹ¬ ìĽĮìļĶ
Ġì¶©ë¶Ħ íķľ
Ġt h
ĠìĬ¤íĨł ë¦¬ë¡ľ
Ġì»¤ ë²Ħ
ìłł ìŀ¥
ëĴ¤ ë¡ľ
ĠìĿ´ë¯¸ ì§Ģ
ĠìłĪ ìłľ
Ġì§ģ ìĹħ
ĠíĹĪë¬´ íķľ
¬ë¦° ëĭ¤
Ġìĺ¤ê¸Ģê±° ë¦¬ëĬĶ
ì¹ľêµ¬ ê°Ģ
Ġë®¤ ì§ģ
Ġê·¸ëł¤ ëĤ¸
Ġê±°ì§Ģ ê°ĻìĿĢ
Ġëĭ¤ìļ´ë°Ľ ìķĦìĦľ
ĠìĿ´íķĺ ëıĦ
ìĤ´ëĭ¤ ìĤ´ëĭ¤
ĠíĽĦìĨį ìŀĳ
Ġê°Ĳëªħ ê¹Ĭê²Į
ëĭ¨ìĪľ íķľ
ĠëĽ°ìĸ´ëĦĺ ëĬĶ
ĠìłĦë°ĺ ìłģìľ¼ë¡ľ
ëłĪë©ĺíĥĢ ìĿ¸
ĠìĦ¤ëĵĿ ëł¥
Ġì²© ë³´
. !
b c
į Ķ
ìĹ ¬ë¦Ħ
ì§Ģ ìĦŃ
ê² »
ìĿĢ ëĵ¯
ìĿĢ ê·¼
ìĿĦ ì§Ģ
ĠìĿ´ ì¤Ģ
ĠìĿ´ ìĨĮë£¡
ìķĦ ìĿĺ
ìķĦ ëĭ´
ĠìķĦ ëĵ¤ìĿ´
ëŁ ¬ë¦¬
ëĮĢ ìŀĳ
ìļ° ë¦¬ëĬĶ
ìŀ¥ ìĹĲ
Ġìłķ ìĥģ
ê³¼ ìĹ°
Ġìĺ ®
íĥ ĵ
Ġíķľ ìĪľê°Ħ
ìŀ¬ë ¡ľ
Ġì§Ħ ìĪĺ
Ġë´¤ ëĤĺ
ìĹ¬ ìĦ±
ĠìĪĺ ëĬĶ
íĦ° ë¦¬
ì¤ĳ íķĻêµĲ
ëŁ¬ ìĬ¤
ëķĮ ëıĦ
Ġë§Ī ëĭ¤
ìĭ¤ ëł¥
Ġëª» ë¯¸
ëĶĶ ì¦ĪëĭĪ
íĬ¸ ëĿ¼
ĠìĿ´ëŁ° ìĺģíĻĶëĬĶ
ĠìĨĮ íĨµ
ëįĶ ìļ±
ìŀ¬ë°Į ìĹĪëĭ¤
ĠìĽĥ ìĹĪëĭ¤
Ġë°Ķ ëĿ¼ëĬĶ
Ġìĥģ íĥľ
ì§Ī ì§Īëģ
ĠëķĮ ê°Ģ
ĠëĦĺ ìĸ´ìĦľ
ľì° ¬
ëł¸ ëĦ¤
Ġë¡ľ ëĵľ
ãħĭãħĭãħĭãħĭãħĭãħĭãħĭãħĭ ãħĭ
Ġìĸ´ëĸ ł
ëª© ìĨĮë¦¬
Ġê¹Ģ ì¹ĺ
ìĽĥ ê¸°ê³ł
Ġãħłãħł ãħłãħł
Ġì¤Ħ ìĿ´ìķ¼
ìķĪë ´¤
ĠìķĦìĿ´ ëĶĶìĸ´
ìĬ¤ëŁ¬ ìĽłëĭ¤
ìĵ°ëłĪê¸° ìĵ°ëłĪê¸°
íĿ¬ ë§Ŀ
ìķĦìĿ´ ëĵ¤
ë¿Ĳ ìĿ´ëĭ¤
Ġì¤Ģ ë¹Ħ
ìĬ¹ ìļ°
ĠíĳľíĺĦ ìĿ´
Ġëĵ± ë¡Ŀ
íĹĪ ìĪł
Ġëĸ¨ìĸ´ ëľ¨
ĠìķĦìī¬ ìĽĮìļĶ
ĠìŀĬ ìĿĦìĪĺ
ĠìĨĮìŀ¬ ìĿĺ
Ġì¡°ê¸Ī ë§Į
ĠìĤ´ìķĦ ìŀĪëĬĶ
íļ¨ ì£¼
ĠìĿ¸ìĥģ ìłģ
Ġìĭľì²Ń ìŀĲ
Ġê¹¨ ìķĮ
ì¤ĳê°Ħ ì¤ĳê°Ħ
Ġíĺ¼ ëŀĢ
ìĭľíĤ¤ ê³ł
ìĭľíĤ¤ ì§Ģ
ãħĩãħĩ ãħĩãħĩ
Ġì£Ħ ìĨ¡
Ġìĺģìĥģë¯¸ ê°Ģ
ê·¸ëŀ ¬
Ġìĸ¸ ëĭĪ
ìĭľë¦¬ì¦Ī ì¤ĳ
Ġê·¸ë¦¬ ìĽĮ
ĠìĺĽëĤł ìĹĲ
íŀĺ ëĵł
ĠìĬ¹ ë¦¬
ãĦ¹ ãħĩ
ì°¾ ìķĦ
âĺħ âĺĨ
Ġì°¬ ìĸĳ
Ġíĺķíİ¸ ìĹĨëĬĶ
Īëł ¨
Ġëª½ íĻĺ
ìĺµ ëĭĪëĭ¤
Ġìĸ´ëķ ł
¤ ë²Ħ
Ġ u
Ġ ;;;
ģ Ŀ
.. !!
ì§Ģ ìĽĲ
ê°Ģ ë©´ìĦľ
Ġìķ ¨
ëĤĺ ëĿ¼ëĬĶ
ĠìĿ´ ìĦ±
ĠìĿ´ ë³Ħ
Ġë§ ģ
ìĸ´ ì°Į
ìķĦ ëł¨
ìĿ¸ ìĥģ
ìĿ¸ ëĶĶ
ĠìķĦ ìļ°
Ġë³´ êµ¬
ë³´ ëįĺ
ìĬ¤ ëŀĢ
ëŀ ĮìĿ´
ë§Ī ëĬĶ
ĠëĤĺ ê³ł
Ġíķĺ ëıĦ
Ġíķĺ ê¸°ìĹĶ
ì£¼ ìľ¨
Ġê² ł
ĠìŀĪ ê¸´
ĠìŀĪ ê²łì§Ģë§Į
ê°Ħ ëıĦ
Ġê¸° ê´´
íĮ ¡
Ġë¬´ ê±°ìļ´
ĠìķĪ ì¢ĭ
ĠìķĪ ëĤĺìĺ´
Ġëª» íķĺê²łëĭ¤
Ġë³¸ ì§Ī
ìłĢ ê²ĥ
ìĽĲ ìĹĲ
ĠìĿ¼ ìĿĦ
ĠìĤ¬ íĪ¬ë¦¬
Ġë°°ìļ° ëĵ¤ìĿĦ
Ġíķ´ ë¦¬íı¬íĦ°
Ġê°Ĳ ìĿ´
Ġê³ł ìĸ´
íķĺì§Ģ ë§Ĳê³ł
ĠìĹŃ ê²¹ëĭ¤
ë¯¼ ìĿĺ
Ġíı °
ëĬĲ ìĻĢë¥´
ĠëĶ° ë¶Ħ
ĠëĤľ ìŀ¡
ë°© ìĭĿ
ĠìºĲ ë¦Ń
ëĪ Īë
Ġë³Ħ ê±°
ê°ĲëıĻ ìĿĦ
Ġë³¼ë§Į íķ©ëĭĪëĭ¤
ìĤ¬ë ĵľ
ĠìłĦê°ľ ìĹĲ
ì± Ļ
ëĭ¤ìļ´ ë°Ľ
ìŀ¥ë©´ ëıĦ
ĠíĶ¼ íĦ°
ĠíĳľíĺĦ íķł
Ġëĭ´ ë°±
Ġìĭ¸ ìļ°
Ġ- -
íķłìĪĺ ìŀĪëĬĶ
Ġë²ł ìĿ´
Ġìķŀ ìĦľ
oo oo
Ġìŀ¡ ìķĦ
ìħ¨ ìľ¼ë©´
íķĺìĭľ ê¸¸
ĠìłĦìŁģ ìĿĺ
ĠìłĦìŁģ ìĺģíĻĶ
íı¬ë ¨¸
Ġíħ ĮìĿ´
ĠìĹŃìĤ¬ ìĥģ
ëĴ¤ ìĹĲ
ëª¨ë¥´ ê²Į
ëª¨ë¥´ ê²łëĭ¤
Ġë²Ĺ ìĸ´ëĤĺ
ĠìķĮëł¤ ì£¼ëĬĶ
ìĦ¼ ìĬ¤
ìĹ¬ê¸° ìĦľ
Ġìĺ¤ê·¸ëĿ¼ ëĵľëĬĶ
ĠìĤ°ë§Į íķĺê³ł
ĠíķĦìļĶíķľ ê°Ģ
íİĻ íĬ¸
ì¼ĵ ëª¬
Ġìļ°ëł¤ ë¨¹
ë©į ì²Ń
Ġì¹Ń ì°¬
ĠìĦ¬ë ľ©
Ġë§Īì°¬ ê°Ģì§Ģ
G ood
b ad
Ļ íķ©
ê³ł íķľ
ãħ Ĳ
Ġìķ ¡
ĠìĺģíĻĶ ëŀĳ
ë¦¬ ìĸ¸
ëĭĪ ìĬ¤
Ġì§ ¬ë½ķ
ë©´ ìĿĦ
ìĭľ ëıĦ
Ġëĭ ¿
ìŀĲ ìĭĿ
ìĽ į
ĠëĦ Ĳ
ë§Ī ìłĢëıĦ
ĠìĹĨ ëįĺ
ĠëĤĺ ìĹ´
ìĺ¤ ê³ł
Ġìĸ´ ìłķì©¡
ì° Ĳ
Ġíķľ ê±°
Ġì§Ħ íķľ
íķĺëĬĶ ê²ĥëıĦ
ê°ľ ìĿĺ
ê°Ĳ ìĥģ
Ġë§Ī ìķ½
Ġìµľê³ł ëĦ¤ìļĶ
Ġê°ľ ëĺ¥
ë³¸ ìĥī
Ġë³´ê³ł ìŀĪëĬĶëį°
ìłĢ ëĤĺ
ë²Ī ìĿ´ëĤĺ
ĠìĤ¬ ìĥģ
ëĭ¤ëĬĶ ê±´
ëıĻ ìļ±
Ġìļ° ëĬĶ
ĠëŃĲ ëĿ¼ê³ł
Ġê°Ĳëıħ ê³¼
Ġê³ł ëıħ
Ġê±° ê¸°ëĭ¤
Ġê±° ëĵŃ
Ġìĥģ ëĮĢ
Ġìĵ°ëłĪê¸° ë¥¼
íıīìłĲ ì¡°ìłĪ
Ġìĭł ê³ł
íļĮ ë¶ĢíĦ°
ë´Ĳ ìķ¼ì§Ģ
ìĿ´ëŁ° ìĺģíĻĶê°Ģ
ĠìĿĺ íķ´
ìĺĪ ê³ł
ìł¸ ìķ¼
Ġê¸°ëĮĢ ìĹĨìĿ´
íĮĲ ìĿĦ
ĠíĸĪ ìĸ´ìļĶ
ĠíĸĪ ëĬĶì§Ģ
Ġëĵ¤ ìĸ´ìĦľ
Ġë©ĭ ì§Ĳ
ĠìĽĲ íķĺëĬĶ
íĺ¸ ëŁ¬
ĠëıĦ ìĻĢ
ĠëĤľ ë¦¬
Ġëĭ¹ ìŀ¥
ĠìĹ¬ìŀĲ ë¥¼
Ġë§ī íĮĲ
ìĹĩ ìĸ´ìļĶ
ìĪľ ìĿ´
ĠëĨĴ ì§Ģ
ì¼Ģ ìĿ´
ì¡Į ìľ¼ë©´
ë¶Ī íĺ¸ê°Ģ
Ġì½Ķë¯¸ëĶĶ ìĺģíĻĶ
ĠëĿ¼ ìĬ¤íĬ¸
ĠëĬĲê»´ ì§Ģ
ë§Įíģ¼ ìĿ´ëĤĺ
ĠíĮĮ ê²©
ĠìĽĲìŀĳ ìĹĲ
ê¿ Ģ
ĠìłĪëĮĢ ë¡ľ
ĠêµŃ ìĸ´
íĶĮ ë¦°
ì¿ ¨
Ġíļ į
ê²ĥê°Ļ ìĿĮ
íķĺíķĺ íķĺíķĺ
Ġë¸Į ë£¨ìĬ¤
Ġë§Īë ĥ¥
Ġíı¬ìĬ¤íĦ° ê°Ģ
ë¶ģ íķľ
ĠíĿĳ ë°±
ĠíĤ¬ë§ģíĥĢìŀĦìļ© ìľ¼ë¡ľ
ë²Į ìį¨
ìĨĮìĦ¤ ìĿĦ
ìĺ¤ê¸Ģ ê±°
Ġë©Ķìĭľ ì§Ģ
** **
ìķĦê¹Įìļ´ ìĺģíĻĶ
Ġë°¤ ìĹĲ
ìŀ¥ë¥´ ê°Ģ
Ġê²© íĪ¬
Ġê¹ĶëģĶ íķľ
ver y
Ġê±°ê¸° ìĦľ
ĠíĿī ëĤ´
ĠìĬ¤ë¦´ëŁ¬ë ¬¼
ë®¤ ì§Ģì»¬
ìľłì¾Į íķĺê³ł
ĠìĿ´ëģĮ ìĸ´
ĠëĤ© ëĵĿ
Ġëĳ Ķ
ëĵ±ìŀ¥ ìĿ¸ë¬¼
ê°ĲìĤ¬ íķ©ëĭĪëĭ¤
B C
í ĳ¼
Ġ h
Ġ ??
Ġ âĢ
ê³ł ëĵ±íķĻêµĲ
Ġê º
íķĺ ê¸¸ëŀĺ
ê°Ģ ìķ¼
ë§Į íķ´ìĦł
Ġê° ±
ìĿ¸ ì§ĢëĬĶ
ìĬ¤ ìĹĲìĦľ
ìľ¼ ëł¤
!! âĻ¥
ëĮĢ ê¸°
ê¹Į ë´Ĳ
ìĹĨ ì§Ģë§Į
Ġì¢ĭ ëįĶëĿ¼
ì§Ħ ìłķ
Ġìĥ Īë²½ìĹĲ
ìĨ Ķì§ģ
ëĤ´ ì§Ģ
íĥ ±
íŀ Ĳë§ģ
ìĹ° ìĺĪ
ê³µ ë¶Ģ
ì¹ĺ ëĭ¤
Ġëª¨ ìĸĳ
ĠìķĬ ìķĦìļĶ
ëłĪ ìķĮ
ĠìĥĿê°ģ ìĿĢ
ĠìĥĿê°ģ ë§Į
ìŀħ ëĭĪê¹Į
Ġëª» íķ´ìĦľ
ĠìĹ¬ ì¹ľ
ë¹Ħ ìĹĲ
ĠëĤ¨ ìĿĺ
ĠëĤ¨ ëĬĶê²Į
ìłĢ ëĥ¥
ĠìĨĮ ê°ľ
ĠìĨĮ ëħĦ
ëįĶ êµ°
Ġë¯¸ íķĻ
Ġë¯¸ ëħĢ
ê³Ħ ë¥¼
íĭ Ī
Ġê³µ ë£¡
ãħľ ãħł
ĠëĲĺ ë©´
Ġë°ĺ ìĿĳ
ìĹŃ ìĿĦ
ê²½ ìĿĦ
ìĹ°ê¸° ìĹĲ
ĠìķĦëĭĪ ìĹĪëĭ¤
ê·¹ ìĿĺ
Ġë§Īì§Ģë§ī íļĮ
ëł¸ ëįĺ
ĠëıĪ ëĤ´ê³ł
ê¹Ģ ë¯¼
íķĺê¸° ëĬĶ
ĠìĿĮ ìĭĿ
Ġë§Ŀ íķł
ĠìļĶ ìĥĪ
íıī ìĿĦ
ëĬĶê±° ëĥĲ
íĨµ ìĪĺ
Ġì°į ëĬĶ
Ġìĭ¤ë§Ŀ ìĿ´ëĭ¤
ĠìºĲë¦ŃíĦ° ëıĦ
ĠìºĲë¦ŃíĦ° ëĵ¤ìĿ´
ĠëĨĢ ëŀĢ
ëŁ¬ë ©´
ë¸Į ëĿ¼
íĸ¥ ìĿ´
ĠëĤĺìĻĶ ëįĺ
ĠëĤĺìĻĢ ìķ¼
Ġê¸´ìŀ¥ê°Ĳ ìĿĦ
Ġìłķìĭł ìĿ´
ĠëĮĢìĤ¬ ìĻĢ
ìĭ¶ìĿĢ ëį°
ëĤ¨ìŀĲ ìĿĺ
ëĿ¼ìĿ´ ì¦Ī
ĠìļĶì¦ĺ ìĿĢ
Ġê°ķì¶Ķ íķ©ëĭĪëĭ¤
Ġì¼Ģ ë¹Ī
íĥĪ ë¦¬ìķĦ
Ġì¶©ê²© ìłģìĿ¸
Ġë¯¼ ì¡±
êµ³ ìĿ´
ĠìĹ¬ì£¼ìĿ¸ê³µ ìĿ´
Ġëĵ£ ê¸°
Ġìĸ´ë¥¸ ìĿ´
ĠíħĮ ëŁ¬
Ġíķľìĭ¬ íķĺëĭ¤
ë¹¼ ê³¤
ĠìĽĥê²¨ ìĦľ
ĠëĪĦêµ° ê°Ģ
ë²Īë³´ ê³ł
ìĿ´ëŀĺ ìĦľ
ìĿ´íĽĦ ë¡ľ
! ~
ì ª
ŀ Ģ
ìĿ´ íķľ
ìĿ´ ìĻĢ
ãħ Į
íķľ íİ¸
ĠìĺģíĻĶ ê°Ļëĭ¤
ìĸ´ ì©Ķ
Ġë³´ ìĿ´ê³ł
Ġê·¸ ê°Ģ
ìĭľ ë¥¼
ë³´ ëŁ¬
ĠìĹĨ ìĹĪ
ĠëĤĺ ë©´
Ġíķĺ ìĦ¸ìļĶ
ìĪĺ ëĭĺ
ìĥģ ìļ°
ĠìŀĪ ìĹĪìĿĮ
íķĺê³ł ëıĦ
¬ëŀ Ĳ
ëĤ´ ìĦľ
ìĹ° ìĿĺ
Ġë´¤ ê³ł
ìĹ¬ ëıĦ
ìĿ¼ ì§Ģ
ìĿ¼ ëŁ¬
Ġëª¨ ë¥¸
ĠìłĦ íĻĶ
ë¶Ħ ì§ľë¦¬
ê°Ĳ íķľ
ê· Ħ
Ġìłľ ìĿ´ìĬ¨
ëįĶ ìĿ´ìĥģ
Ġë² ¤
Ġë¶Ģ ë¶Ģ
ë²Ī ìĹĲ
Ġíķ ĳ
Ġíķ Ń
Ġìŀ¬ë¯¸ìŀĪ ìĹĪëĬĶëį°
ìŀ¬ë°Į ìĹĪëĬĶëį°
ĠìĽĥ ìĿĦ
ëĤ¨ ìĿĦ
Ġëĭ¤ìĭľ ë³´ê³ł
ì²Ń ìĨĮëħĦ
ĠíķĺëĤĺ ëĬĶ
ĠëĤĺìĺ¤ ëĦ¤ìļĶ
Ġìķ¡ìħĺ ìĶ¬
Ġì½Ķ ìĬ¤
êµĲ ìľ¡
ĠìĿ´íķ´ ëıĦ
Ġë¶Ī ê°Ģ
Ġì²ĺìĿĮ ìĿ´ëĦ¤
Ġì²ĺìĿĮ ë³¸ëĭ¤
Ġê·¹ íĺĲ
ìłķëıĦ ëĬĶ
íĤ¤ ëĵľ
ë¥ĺ ìĺģíĻĶ
Ġíıī íĻĶ
ìĿ´ê±° ëĤĺ
Ġê·¸ëŁ° ê±°
ìķĮ ìķĦ
Ġê´ľì°® ëĦ¤ìļĶ
........ ....
íķĺê¸° ê¹Įì§Ģ
Ġìĭ¬ íĺķëŀĺ
ĠíĹĪ ëĤĺ
ĠíĺĦìĭ¤ ê³¼
ĠíĺĦìĭ¤ ìłģìĿ´
ê»ĺ ìĦľ
ĠíĶ¼ ìķĦëħ¸
Ġìĸµì§Ģ ìĬ¤ëŁ½ê³ł
ìĬ¹ íĹĮ
Ġìŀħ ìŀ¥ìĹĲìĦľ
Ġíĺ¸ íĿ¡
ĠìĻĢ ìĦľ
Ġì¹ľ êµ¬ëŀĳ
ì§Ģê¸Ī ìĿĢ
Ġìĸ´ëĶĶ ìĹĲ
Ġì¡°ê¸Ī ìĿĢ
Ġë³´ê²Į ëĲĺëĬĶ
ìĽĲìŀĳ ìĿ´
Ġìĸ´ìĦ¤ íĶĦëĭ¤
Ġë¬¸ìłľ ë¥¼
ĠìŀĶìŀĶ íķĺê²Į
Ġìĸĺ ê¸°ë¥¼
Ġê°ĲëıĻìłģìĿ´ ëĦ¤ìļĶ
ìĨĲ ê°ĢëĿ½
ĠíĴį ìŀĲ
Ġìĸ´ìļ¸ ë¦¬ì§Ģ
ìķĶ íĬ¼
Ġì½ ĺ
Ġíĺ¹ ìĭľëĤĺ
Ġìį °
Ġë¬ĺ íķľ
Ġë²Ĺ ìĸ´
Ġm ovie
ĠìĥĪ ìĤ¼
ì§Īë ķĮ
ì¤ĦìķĮ ìķĺëĭ¤
ë½ Ģ
ĠìĹ¬ëŁ¬ë ²Ī
íĿ¥ë¯¸ ì§Ħì§Ħ
Ġìµľê·¼ ìĹĲ
ëĤ« ëĭ¤
ĠëĿ¼ìĿ´ ìĸ¸
Ġì¸ ¡
ìĺ¤ëŀ« ë§ĮìĹĲ
ëĿ¼ìĹĲ ëª½
2 5
i l
v s
ľ ìĭľ
íķĺ ìĿĺ
ê¸° ë°ľ
ĠìĿ´ ê²ĥìĿ´
ìĸ´ ëłµ
ë¦¬ ëĬĶëį°
Ġìł Īë
ìķĦ ëŀĺ
ĠìķĦ íĮł
íķ´ ê°ĢëĬĶ
Ġë³´ ê²łëĭ¤
Ġë³´ ìĦĿ
ìĥ Į
Ġê·¸ ìĿ´ìĥģ
ë° ĳ
ëŀ ´
ĠìĤ Ĳ
ëĮĢ ì¤ĳ
Ġì§Ģ ê²½
ê·¸ ëĭ¹ìĭľ
Ġíķľ ê°ľëıĦ
ìķĺ ìĸ´
ë¯¸ ë¥¼
ë¯¸ ëŀĺ
ê²ĥ ê°ĻìĿĢëį°
ìĿ¼ ìĹĲ
Ġìŀĺ ë³´ê³ł
ĠëĬ ¦ê²Į
ê°Ĳ íŀĪ
Ġê°Ļ ì§Ģë§Į
ĠëĤ¨ ê¸°ëĬĶ
íĬ¸ ìĻĢ
Ġìĺ¤ íķ´
ĠìĬ¤íĨłë¦¬ ìłĦê°ľ
ìķĪ ìĹĲìĦľ
ìĽĲ ìĹĲìĦľ
Ġì§Ģë£¨ íķ¨ìĿĦ
ìĽĮ ì¦Ī
ĠëĲĺ ìĦľ
Ġíķ´ ì¤Ģëĭ¤
íĤ ´
Ġìĭ¶ ìĹĪëĬĶëį°
Ġê°Ĳ ìĦ±ìĿĦ
ĠìĤ¬ëŀĳ ìĬ¤ëŁ½ëĭ¤
Ġìŀ¬ë¯¸ìĹĨ ëĦ¤ìļĶ
Ġìĭľê°Ħ ëıĦ
ĠíķĺëĤĺ ê°Ģ
ìµľê³ł ìŀħëĭĪëĭ¤
Ġì£½ ìĸ´
ì¦Ŀ ìĿĦ
ìĹĲê²Į ëıĦ
ĠíĽĦ íķĺê²Į
ĠìĦ± ìĿ¸ìĿ´
ĠíĸĪ ëĤĺ
Ġì§ľ ë¦¬
Ġíģ ¬ë
ì½ ķ
ĠìĿ´ìĥģ íķ´
ìĸ¸ ë§¨
Ġìłģ ìĿĢ
Ġìłģ ëĤĺëĿ¼
Ġê±´ ì§Ī
ìŀ¬ë¯¸ìŀĪ ìĹĪìĸ´ìļĶ
ĠìķĦë¬´ ëĤĺ
Ġìĸµ ìļ¸
ĠìĹ´ ê´ĳ
ĠìºĲë¦ŃíĦ° ëĬĶ
ë§ŀ ê³ł
ĠìĺģíĻĶìĺĢ ëĬĶëį°
ĪëĶ °
ìĬ¬ íį¼
ìķĦê¹Ŀ ê³ł
Ġëĵ¤ìĸ´ ê°Ħ
ĠìķĪë³´ ëĬĶê²Į
ĠëĤļ ìĿ´ì§Ģ
Ġë°°ê²½ ìĿĮìķħ
ìĻĦ ìĦ±ëıĦ
Ġãħİ ãĦ·ãĦ·
ĠìĽĥìĿĮ ìĿĦ
Ġê²°êµŃ ìĿĢ
íŀĪë ´¤
ë§ĪìĿĮ ìĿĦ
Ġëĭ¹ìĭľ ìĹĲ
ĠìłĪ ìłķ
Ġê°Ģì¹ĺ ëıĦ
,,,, ,,,,
ĠìĤ¼ë¥ĺ ìĺģíĻĶ
Ġìĸ´ì©Į ë©´
ìŀ¬ë¯¸ëıĦ ìĹĨê³ł
ìĿ´íķĺ ëĵľ
Ġì¿ ¨
ê¼¬ ë§Ī
Ġë©ĶìĦ¸ ì§Ģë¥¼
ì¤ĦìķĮ ìķĺëĬĶëį°
íĹĪìłĳ íķľ
ĠìĥĪë¡ Ŀ
¬ëł ¸
ìµľê·¼ ìĹĲ
Ġê²ī ë©ĭ
ĠìĿµ ìĪĻ
ëıħë¦½ ìĺģíĻĶ
ëŀľìĬ¤ íı¬ë¨¸
_ ^
i d
´ £
ë ĩ
Ġ !!!!
Ġì ¾Į
Ġì Įĵ
ê° Īë
ëĭ¤ ì½Ķ
ê³ °
ëĬĶ ê²ĥëıĦ
ê³ł ìłĦ
Ġí ī
ĠìĺģíĻĶ ëĵ¤ìĿ´
Ġë§ Īë²ķ
ìķĦ ë¦¬
ìĿ¸ íĦ°
ë³´ ëł¤ê³ł
ìĬ¤ íĭ´
ëĮĢ ì¶©
ĠìĹĨ ìĸ´ëıĦ
ì§Ħ íķľ
ìŀĪ ìĿĦê¹Į
ìłĦ ëĭ¬
ĠìŀĪ ìĹĪìĬµëĭĪëĭ¤
ĠìĹ° ê´Ģ
Ġíķľ ê°Ģ
ì¹ĺ ë§Į
Ġìŀ¬ë°Į ìĹĪ
ĠëĬ ĳëĮĢ
Ġì£¼ ìľ¤ë°ľ
Ġë§Ī ëĭĪ
Ġëª» íķĺëĦ¤
ĠìĹ¬ ìĭł
ĠìŀĲ ìķĦ
Ġê²ĥ ëĵ¤
Ġìĺ¤ ì§Ģ
Ġê¹ ¡íĮ¨
ìŀ¬ë¯¸ ìŀĪëĦ¤ìļĶ
ë²Ħ íĬ¼
ëªħ íĻĶ
Ġìķł ìŀĶ
ĠìłĢ ì§Ģ
ĠíĹ ¬
Ġê±° íĴĪ
ĠìĹŃ ìŀĳ
Ġëĭ¤ìĭľ ë³´ê¸°
ëŃ ĩ
Ġëª° ìķĦ
Ġê¸°ëĮĢ ê°Ģ
Ġê°ķ ìļĶ
ìĻľ ìĿ´ëłĩê²Į
ëĲ Ĳëĭ¤
ĠíĺĦìĭ¤ ìĿĢ
ìĥĿê°ģ ìľ¼ë¡ľ
Ġë¦ °
ĠìĦł ìłķ
Ġê³¼ ìłķìĿ´
Ġë°© ê¸Ī
êµ¬ë ¨¼
ĠìĿ¼ë³¸ ìĿĺ
ëĬĶê±° ëĭ¤
Ġê¸´ ë°ķ
Īë° ľ
ì£½ ìĿ´ê³ł
ĠëĨĢ ëŀĺ
Ġì» ¬
Ġì» ·
Ġì» ´íĵ¨íĦ°
Ġìŀħ ìŀ¥
Ġê³ °
íķłìĪĺ ëıĦ
ĠëĤł ìķĦ
Ġíĺķ ìĤ¬
ì¤ĺ ëıĦ
Ġì´Ī ëĵ±íķĻêµĲ
Ġìĭľë¦¬ì¦Ī ìĿĺ
ë²ł ìĬ¤íĬ¸
ìĿ´ìķ¼ê¸° ê°Ģ
Ġë°°ê²½ ìĿ´
Ġì£¼ê³ł ìĭ¶ëĭ¤
Ġì¶©ë¶Ħ íķĺëĭ¤
Ġì»¤ ìĦľ
ìĹ°ì¶ľ ìĿ´
ë» ĳ
ê½ Ŀ
Ġìĵ¸ ìĵ¸
ĠìŀĲìĹ° ìĬ¤ëŁ½ê²Į
íĭ°ë¹Ħ ë¡ľ
ëłĪë ĶĶ
ĠìĺģíĻĶìĿ¸ ê²ĥ
ìµľìķħìĿĺ ìĺģíĻĶ
Ġìĭ«ìĸ´ íķĺëĬĶ
ìłĲì¤Ģ ê²ĥ
ì¶ľìĹ° ì§Ħ
Ġì©Ķ ìĸ´
Ġë¸ĶëŀĻ ì½Ķë¯¸ëĶĶ
Ġìĭľë¦¬ ì¦Īë¥¼
ĠìĨĮìŀ¥ íķĺê³ł
Ġë» ¥
Ġì¯ §
ĠíķĺìĿ´ íĭ´
ëŀĺê³¤ ë³¼
! ?
ëĭ¤ ìĨĮ
ëĤ Ħ
ĠìĺģíĻĶ ìĨį
ĠìĺģíĻĶ ëŀĢ
ìĭ ¬ë¦¬
ìĿĺ ëıĦ
ìĿĢ ìĺģíĻĶ
ëĤĺ ìĺ¬ëķĮ
Ġë§ Ļ
ìĸ´ ìĿ´ê°Ģ
ë¡ľ ë´ĩ
ë¡ľ ë²ĦíĬ¸
ëł Ģ
ëį° ëłĲ
íķ´ ìĦĿ
íķ´ ì¤Ģëĭ¤
ìĥ Īë²½ìĹĲ
ìĺģíĻĶ ë³´ë©´ìĦľ
ìĬ¤ íĮĮìĿ´
ëŀ ¬ëĭ¤
ì¤ į
ìłķ ì¹ĺ
Ġì¢ĭ ìķĹ
ìŀĪ ìĹĪëĬĶëį°
ìłĦ ìĿĢ
ìĥģ ëıĦ
ìĺ¤ ìļ°
Ġìĺ ¬ëĵľ
Ġë§Į ìķ½
ìĦ± íķľ
ĠìĹ°ê¸° ë§Į
Ġëª¨ ë°©
ĠìķĪ ê°ĢëĬĶ
Ġì£¼ ìĦ¸ìļĶ
Ġëĵľ ëĶĶìĸ´
ĠìĿ¸ ì¢ħ
Ġìµľê³ł ìĿ¸ëĵ¯
ìľł ì¾Įíķľ
Ġë¹Ħ íķ´ìĦľ
Ġë¹Ħ ì¥¬ìĸ¼
Ġë¯¸ ì³Ĳ
ë²Ħ ì¸ł
Ġë§Įëĵ¤ ìĹĪëĥĲ
ëĲĺ ìļĶ
ĠëģĿ ëĤ¨
ìĺģ êµŃ
ë¦¬ë ĵľ
ë¦¬ë ·°
Ġìķł ì´ĪìĹĲ
OO OO
ĠëĬĲëĤ Ģëĭ¤
ĠìŀĪëĬĶ ê°Ģ
ĠëĦĺ ì³Ĳ
Ġë©ĭ ìł¸ìļĶ
Ġê¸°ìĸµ ëĤľëĭ¤
Ġìŀ¥ë©´ ë§Į
ĠíķľêµŃ ìĺģíĻĶìĿĺ
Ġê´ľì°® ìķĺëįĺ
Ġìĭ¬ íķĺëĭ¤
ê¼ Ī
ì§ĳ ì¤ĳ
ĠìļĶ ë¦¬
ĠìķĦìĿ´ ëĶĶ
Ġë§Įëĵ¤ìĸ´ ì£¼
Ġê³µíı¬ ê°Ģ
íĿ¬ ëĬĶ
Ġíİ¸ ìĿ¸ëį°
ìķĦìĿ´ ëĵ¤ê³¼
Ġê²Į ìĬ¤íĬ¸
ë´ĲëıĦ ë´ĲëıĦ
íĬ¹ ìľłìĿĺ
ê¸°ëĮĢ ìĿ´ìĥģ
ëŁ¬ë ¬¼
ĠëĬĲê»´ ì§Ģì§Ģ
ì°½ ìĭľìłĪ
ĠìłľëĮĢë¡ľ ëĲľ
ĠíĨµ íķ´ìĦľ
ĠìĿĺë¯¸ ëıĦ
ì¤ĺ ìķ¼ì§Ģ
ë²ķ íķľ
ìĬ¬ íĶĦê³ł
ì§Ŀ íīģ
ì¶© ë¶ĦíŀĪ
Ġíŀĺëĵ¤ ìĹĪëĭ¤
Ġì²¨ ë¶ĢíĦ°
ëªħìŀĳ ìĿ´ëĭ¤
Ġìĸ´ë¦° ìĭľìłĪ
Ġì£ ł
ìĺ¬ë ł¤
ĠìĦ¤ìłķ ìĿĢ
Ġê°ĲëıĻìłģìĿ´ ìĹĲìļĶ
ĠìĿ¸ë¬¼ ëĵ¤ìĿĺ
ĠìĻł ë§Įíķľ
ìķĦëĭĮ ëį°
ĠëĨĴìĿĢ ì§Ģ
ĠëįĶìļ± ëįĶ
ë¦¬ìĿĺ ë¦¬ìĿĺ
ĠìĹĲë¡ľ ìĺģíĻĶ
íĢ Ħ
ë²Īë ´ĲëıĦ
Ġê¼¬ ë§Ī
Ġê» Ĳëĭ¤
Ġë©´ ìĿ´
Ġê¹ľ ëĨĢ
Ġëļ ľ
Ġì°¬ ìĤ¬ë¥¼
Ġëº ı
ĠìķĪë¬´ ìĦŃ
ĠìĺĨ ìĹĲ
ì¼ĢìĿ´ë¸Ķ ìĹĲìĦľ
°ľ ê²¬
íıīë²Ķ íķľ
ĠìĤ´ëĭ¤ ìĤ´ëĭ¤
ìĦ¸íı¬ ìĨĮëħĢ
ĠíĿ¬ë ĮĢìĿĺ
ì§Ģë¶Ģ ì§Ģ
Ġíķ¸ ëĵľ
âĺħâĺĨ âĺħâĺĨ
e l
f f
Ġ H
ģ ëĭĪëĭ¤
ì§ ĪëĿ¼
ëĵ ¦
ë¦ ħ
ĠìĺģíĻĶ ìłģ
ìĭ ¹
ëĤĺ ë³´ëĭ¤
ĠìĿ´ ìĸ´ì§ĢëĬĶ
... ;;
Ġì§ ¤
ìĺģíĻĶ ë³´ëĬĶ
ìĺģíĻĶ ìĺĢëĭ¤
ë³´ ìĨĮ
ìĬ¤ íħĿ
ëŀ ¨
ê±° ìĽĮ
ìĤ Ĳ
ìŀĲ ëĵ¤ìĿĢ
ìŀĲ ìĭłìĿĺ
ìķ¼ ìŀĲ
ì£¼ ë§Ĳ
ìłģ ìĿĦ
Ġì§Ģ ìĺ¥
Ġíķľ ìĭľê°Ħ
ëĵľ ë¦½
Ġìĭľ íĹĺ
Ġì° Ķ
ê²ĥ ìĿ¸ê°Ģ
ì¹ĺ ê¸°
Ġê¸° ì¡´
Ġëª¨ ëıħ
ìĤ¬ ê¸°
ìĤ¬ ì§Ħ
Ġë¬´ ìĿĺë¯¸
ëŁ¬ ìĽĢ
ĠìķĪ ê²¨
ĠìķĪ ì¢ĭìĿĢ
Ġì¡ ±
Ġê°ľ ì½ĺ
Ġë³¸ ì§Ģ
ìĺĢ ëĦ¤ìļĶ
Ġìĺ¤ ë¡ľì§Ģ
ĠìĤ¬ ê³¼
Ġì¤ĳ ìĿĺ
ìĺģ ìĿĢ
ëıĻ ìĿĦ
Ġíķ´ ìļĶ
ì¡° íķľ
íĤ µ
Ġìĭ¶ ìĿĮ
ìķł ê¸°
Ġì¢ĭìķĦ íķĺìĭľëĬĶ
ìľĦ ë¥¼
¬ë¦ ½
Ġìĭł ìĿ¸
ìĿ´ëŁ° ê±´
ìķĬ ê³ł
Ġëª¨ë¥´ ê²Ł
ĠìķĦê¹Ŀ ìĬµëĭĪëĭ¤
ĠíĬ Ģ
Ġë§Īì§Ģë§ī ìĿĢ
Ġì²ĺìĿĮ ìĹĲ
ĠìĿ´ìķ¼ê¸° ìĿĺ
ë¡ł ìĿĺ
íĺĢ ìĦľ
ĠìĦ¸ ìĽĶ
Ġíıī ìĨĮ
Ġë§Įëĵł ê±´ì§Ģ
Ġë³Ħë¡ľ ìĺĢëĭ¤
ĠëĬĲëĤĮ ëıĦ
ì¹´ ëį°ë¯¸
ìķĪë ³¸
ì§Ģë£¨ íķ´ìĦľ
ë©Ķ ë¦¬
ĠëĤ¨ìŀĲ ëĬĶ
Ġë»Ķ íķĺëĭ¤
Ġëª¨ëĵł ê²ĥìĿ´
ĠìĻ¸ ë©´
ĠìĹ´ ìłķ
ëıĪ ìľ¼ë¡ľ
ë¸Į ë£¨ìĬ¤
Ġìŀ¬ë°ĭ ìĸ´ìļĶ
ĠìĤ´ìķĦ ìķ¼
ëĨĪ ìĿĺ
ë¶Ģë¶Ħ ìĿĢ
íĺľ êµĲ
Ġìĸ´ìĿ´ ìĹĨìĿĮ
Ġë¯¸êµŃ ìĿĺ
ê²ĥê°Ļ ìķĦ
ëĭĿ ë§¨
Ġì»¤ ëħķ
Ġê°ĸ ê²Į
Ġê°ĸ ì¶ĺ
ĠìĹŃìĤ¬ ìĹĲ
Ġìĺ¤ê¸Ģ ìĺ¤ê¸Ģ
Ġì¤ĺ ëıĦ
Ġ200 0
Ġê·¸ëŁ´ ëĵ¯
ì´ĪëĶ© ëķĮ
ĠìĨĮë¦Ħëģ¼ ì¹ĺëĬĶ
ë§ĲìĿ´íķĦìļĶ ìĹĨëĭ¤
ìķĦìī½ ëĭ¤
ìĦ¹ ìĬ¤
Ġì¼ĢìĿ´ë¸Ķ ìĹĲìĦľ
Ġë¬´ìĸ¸ ê°Ģ
ĠìķĪë´Ĳ ìĦľ
ê¹ģ ëĭĪëĭ¤
c n
¥ ¸
ª »
Ħ ĺ
ìĿ´ ë»Ĳ
ìł Īë
ì§Ģ íĻĺ
íķľ íħĲ
ëĤĺ ë¬´
ëĤĺ ìłĢëĤĺ
ê²Į ìĿ´
ê²Į ëĭ¤ê°Ģ
ìĬ ¬ë¦¬
ë¦¬ ìī¬
ëł ĺ
ìĿ¸ ìľ¼ë¡ľ
ìĿ¸ íĺľ
ìĺģíĻĶ ëĦ¤ìļĶ
ìĭľ ì¼°
ìĹĨ ìĬµëĭĪëĭ¤
Ġíķĺ ëĭĪ
ì§Ħ íĺ¸
íĨ ¡
íķł ìĪľ
Ġë´¤ ëĬĶì§Ģ
ê²ĥ ëĵ¤ìĿ´
ê²ĥ ì²ĺëŁ¼
ìłľ ë¥¼
Ġê¸° ìŀĲ
ĠìĹ°ê¸° ìŀĲëĵ¤
ëŀĺ ìļĶ
ìĭł íĺľ
ëŁ¬ ëĭĪ
ëŁ¬ íĭ°ë¸Į
ĠìķĪ ëĭ¤
ĠìķĪ ê°Ĳ
ĠìķĪ ëĤĺìĺ¤ëĬĶ
~~ !
Ġë§Ĳ ìķĺëĭ¤
ëħĦ ìĿĦ
Ġìłľ ìĻķ
íĥĢ ìĿ´
Ġê²ĥ ê³¼
Ġìĺ¤ íĶĦëĭĿ
ĠìĨĮ íĴĪ
ìĭ¬ ìĿĢ
Ġë§İ ëĦ¤
ìĽĲ ëıĦ
Ġê³µ ì¤ĳ
ìŀ¬ë°Į ìĹĪìĿĮ
ĠìĽĥ ê²¼ëĭ¤
ëĳĲ ê·¼
Ġê±° ìķ¼
ë°Ķ ëĭ¤
Ġë°Ķ ëŀĢëĭ¤
êµ° ìĿ´
!!!! !!!
Ġíı ¼
íĮĲ ìľ¼ë¡ľ
Ġìµľê³łìĿĺ ìĺģíĻĶ
Ġì²ĺìĿĮ ìĿ´
Ġëªħìŀĳ ìĿĢ
Ġë¡ľ ë¹Ī
Ġë¡ľ ë²ĦíĬ¸
ìĻľ ìĿ´ë¦¬
íħĮ ë¦¬
ê²© ìĿ´
Ġë§ī ìĥģ
¬ëĿ¼ ê¸°
ĠìĿĮ ëª¨
Ġêµ¬ ì¡°
Ġë§ŀ ì¶Ķ
ì¼Ģ íĮħ
ĠìķĦìĿ´ ëĵ¤ìĿĺ
ĠìķĦìĿ´ ëĵ¤ìĹĲê²Į
Ġëª°ìŀħ íķĺê²Į
ì§ĢìķĬ ê²Į
ì§ĢìķĬ ìķĦ
ìĵ°ëłĪê¸° ëĭ¤
ĠëĪĦ ëĤĺ
ĠìĿ¸ìĥĿ ìĿĢ
Ġë°Ľ ìķĦìķ¼
Ġê·¹ìŀ¥ ìĹĲ
ëĦĺ ì¹ĺëĬĶ
íĬ¹ ë³Ħ
Ġë²Ħ ë¬´
ĠìĹĦì²Ń ëĤĺê²Į
ĠìĹī ëļ±
ĠìĨĲ ê¼½
ĠíĮĮ ê³ł
Ġë¬¼ ìĸ´
Ġê°Ģì¡± ìĿĦ
Ġê°Ģì¡± ìķł
Ġë¶Ģì¡± íķĺê³ł
ĠìĤ¶ ê³¼
Ġìŀ¬ë°ĭ ìĿĮ
ĠëĤĺë¦Ħ ëĮĢë¡ľ
Ġê´Ģê°Ŀ ìĿ´
Ġì¶©ê²© ìłģìĿ´
ë¡Ń ëĭ¤
Ġíģ´ ë¦¬
ĠìºĲìĬ¤íĮħ ìĿ´
Ġë¹ĦêµĲ íķĺë©´
Ġì±Ħ ìĽĮ
ĠìĪľìĪĺ íķĺê³ł
ìĵ¸ ëį°
ìŀĳê°Ģ ëĭĺ
Ġìı ł
Ġë¹µ ìłĲ
Ġì´ĪëĶ© ëķĮ
Ġìī½ ì§Ģ
Ġë°ĶëĿ¼ ë³´ëĬĶ
ĠìĨĮë¦¬ ë§Į
Ġê·¸ëŁ´ ìĭ¸
íķĺê²ł ìĬµëĭĪëĭ¤
ĠíĻįì½© ìĺģíĻĶ
ë± Ģ
ëĭ¬ëĿ¼ ê³ł
ìĹ¬ëŁ¬ë ¶Ħ
ĠìĦ¸ëł¨ ëĲľ
Ġìĺģíĸ¥ ìĿĦ
ĠíħĲ ëį°
ë º
ìĿ´ ëŁ´
ìķ ¨
ìĿĺ ìĻ¸ë¡ľ
ë¡ľ ëĿ¼
ë§Į ìķ½
ë¦¬ ìĬ¨
Ġìł Īë°ĺ
ìķĦ ëĥĲ
ìĿ¸ íķ´
ëį° ìļĶ
Ġì§ Ļ
Ġëĭ ĪëĦ¤
ĠëĤĺ ìķĦ
Ġëĭ¤ ë¦Ħ
ìłĦ íŀĪ
Ġìłķ ì£¼íĸī
ĠìŀĪ ìĸ´ëıĦ
ìĺ¤ ë²Ħ
Ġëĵ ¬
Ġìĸ´ ëĶĺ
Ġìĺ ¬ë¦¬ë
Ġì§Ģ ê°Ģ
ê·¸ ëŁ´
ì¡ ĭ
Ġê°Ģ ê¹Ŀ
ìĦ± ê³µ
íŀĪ íŀĪ
ìĸ Ģ
Ġê¸° ë²ķ
ìĿ¼ ëķĮ
ĠìĹ°ê¸° íķľ
ĠìĹ°ê¸° ë¡ľ
êµ¬ êµ¬
ĠìłĦ ëıĦ
êµŃ ëĤ´
ì¤ĳ íķľ
ë¶Ħ ìłķëıĦ
ê²ł ê³ł
ëł¥ ìĹĲ
ëħĦ ëıĻìķĪ
ìĺĢ êµ¬ëĤĺ
Ġìĸ Ħ
ĠëĤ¨ ê¸´
ĠìĿ´ëŁ° ìĭĿìľ¼ë¡ľ
ìĽĲ ìĿĦ
ìĪ Ģ
Ġë² ĦìłĦ
ĠëĵľëĿ¼ë§Ī ëıĦ
ë¦¬ë ł¤
ĠìĤ¬ëŀĳ ìĬ¤ëŁ½ê³ł
íĹ ī
ë°ĺ ëĭ´
¬ë¦ ´
ë°ľ ë¡ľ
ìĿ´ëŁ° ìĺģíĻĶëĬĶ
ĠìĿĺ ë¦¬
Ġì¶Ķ ê°Ģ
Ġê¸°ëĮĢ íĸĪ
ĠìĦ± íĺķ
ë°°ìļ° ëĵ¤ëıĦ
ìĤ¬ëŀĮ ëıĦ
ĠìĹĲ ìĿ´
ĠëĲ Ĳëĭ¤
íģ¬ ê°Ģ
Ġë§¤ëł¥ ìłģ
ì§ĢìķĬ ìĿĮ
ĠìķĪëĲĺ ëĦ¤
Ġìłģ ê·¹
ĠìĥĿ ì¡´
íĪ Ń
ĠëĪĪ ìľ¼ë¡ľ
Ġìļķ ìĿĦ
Ġìŀ¬ ìķĻ
ìłĲëıĦ ìķĦê¹Ŀëĭ¤
Ġì¹ĺ ë£Į
Ġê°Ħ ì§Ģ
ëģĿ ëĤ´
ĠìŀĲì²´ ëıĦ
Ġìķħ ë§Ī
ĠëĤĺìĻĢ ëıĦ
ê²ģ ê²Į
ë¸Ķ ë£¨
ìĽĲìŀĳ ìĹĲ
ëŃĶ ì§Ģ
Ġìĸ´ìĿ´ ìĹĨëĭ¤
ĠìĦ¸ìĥģ ìĹĲìĦľ
ì±ħ ìŀĦ
Ġì¶Ķìĸµ ìĿĦ
ìĭ¸ ìĿ´ì½Ķ
ĠìĬ¤íĥĢ ëİĢ
ĠìķĶ ìļ¸
Ġëª°ìŀħëıĦ ëıĦ
ìĹĶëĶ© ìĿ´
íģ¬ë ¥¼
ĠìĥģíĻ© ìĿ´
ìĭŃ ëĭĪëĭ¤
Ġëĵ£ ëĬĶ
ëĤĺë¦Ħ ëĮĢë¡ľ
ë³¼ë§Į íķ¨
ĠìĹīë§Ŀ ì§Ħì°½
ĠëĨĪ ëĵ¤
ĠìĿ´ëĶ° ìľĦë¡ľ
ĠíĹĪìĪł íķľ
Ġìĥģì²ĺ ë¥¼
ìłĲì£¼ ê¸°ëıĦ
íĿĶ íķľ
BS ìĹĲìĦľ
ĠíĿī ëĤ´ëĤ´
ĠìĦ¬ìĦ¸ íķľ
ĪĦ ëĿ¼
ĠëĵľëĿ¼ë§ĪëĿ¼ ê³ł
ĠìĿĢê·¼ íŀĪ
ĠìĹ½ ê¸°
ê¹ľ ì§Ŀ
Ġìĸ´ìĦ¤íĶĦ ê²Į
ĠìķĪë´ Ħ
. (
. ?
n a
ģ ìĹĲ
.. ;
ëĬ Ļ
ìķ µ
ìķ ľ
ìļ ¬
íķĺ ëįĶëĭĪ
ê¸° ì¢ħìĺģ
ìĿĦ êº¼
ĠìĿ´ ì§Ģ
ìĸ´ ëł¤
ë¡ľ ìĿĺ
ë¦¬ ì¦ĺ
ëĵ¤ ë¦°
ìķĦ ì¤Įë§Ī
ìĿ¸ ëĵ¤ìĿĢ
ìĺģíĻĶ ì¤ĳìĹĲ
ë³´ ìĿ¸ëĭ¤
ìŀĲ ìľł
ìĹĪ ìĿĦíħĲëį°
Ġíķĺ ìłķìļ°
ìķ¼ ê²łëĭ¤
ìĪĺ ê³ł
